{"version":"1.0","truncation":null,"padding":null,"added_tokens":[{"id":0,"special":true,"content":"[UNK]","single_word":false,"lstrip":false,"rstrip":false,"normalized":false},{"id":1,"special":true,"content":"[CLS]","single_word":false,"lstrip":false,"rstrip":false,"normalized":false},{"id":2,"special":true,"content":"[SEP]","single_word":false,"lstrip":false,"rstrip":false,"normalized":false},{"id":3,"special":true,"content":"[PAD]","single_word":false,"lstrip":false,"rstrip":false,"normalized":false},{"id":4,"special":true,"content":"[MASK]","single_word":false,"lstrip":false,"rstrip":false,"normalized":false}],"normalizer":null,"pre_tokenizer":{"type":"Whitespace"},"post_processor":null,"decoder":null,"model":{"type":"BPE","dropout":null,"unk_token":null,"continuing_subword_prefix":null,"end_of_word_suffix":null,"fuse_unk":false,"vocab":{"[UNK]":0,"[CLS]":1,"[SEP]":2,"[PAD]":3,"[MASK]":4,"#":5,"$":6,"%":7,"&":8,"(":9,")":10,"*":11,"+":12,"-":13,"/":14,"0":15,"1":16,"2":17,"3":18,"4":19,"5":20,"6":21,"7":22,"8":23,"9":24,":":25,"=":26,"@":27,"[":28,"\\":29,"]":30,"_":31,"`":32,"a":33,"b":34,"c":35,"d":36,"e":37,"f":38,"g":39,"h":40,"i":41,"j":42,"k":43,"l":44,"m":45,"n":46,"o":47,"p":48,"q":49,"r":50,"s":51,"t":52,"u":53,"v":54,"w":55,"x":56,"y":57,"z":58,"é":59,"’":60,"in":61,"ing":62,"an":63,"th":64,"er":65,"on":66,"is":67,"ar":68,"man":69,"the":70,"al":71,"en":72,"es":73,"ou":74,"to":75,"and":76,"pl":77,"at":78,"wo":79,"ho":80,"of":81,"re":82,"me":83,"king":84,"ch":85,"it":86,"st":87,"ay":88,"id":89,"le":90,"ro":91,"or":92,"ir":93,"eo":94,"ac":95,"tal":96,"ers":97,"ic":98,"are":99,"ab":100,"play":101,"how":102,"out":103,"wi":104,"woman":105,"ed":106,"with":107,"so":108,"as":109,"show":110,"about":111,"co":112,"talking":113,"ge":114,"car":115,"some":116,"men":117,"il":118,"vid":119,"wh":120,"ad":121,"ga":122,"ther":123,"video":124,"ple":125,"pers":126,"ts":127,"be":128,"person":129,"us":130,"playing":131,"ion":132,"lo":133,"ie":134,"bo":135,"oun":136,"ting":137,"all":138,"for":139,"sp":140,"do":141,"ter":142,"game":143,"sing":144,"dr":145,"ke":146,"peo":147,"mo":148,"se":149,"people":150,"ks":151,"irl":152,"girl":153,"one":154,"iv":155,"am":156,"gr":157,"un":158,"two":159,"gh":160,"el":161,"bl":162,"sc":163,"ap":164,"li":165,"fo":166,"tr":167,"ack":168,"di":169,"im":170,"ur":171,"vie":172,"ea":173,"dis":174,"ne":175,"sh":176,"ce":177,"age":178,"ld":179,"po":180,"gu":181,"whi":182,"ain":183,"up":184,"his":185,"ma":186,"ver":187,"fro":188,"her":189,"com":190,"other":191,"from":192,"ball":193,"ent":194,"ex":195,"foo":196,"singing":197,"ess":198,"while":199,"ound":200,"ri":201,"we":202,"toon":203,"dan":204,"cartoon":205,"ong":206,"ut":207,"wn":208,"ite":209,"est":210,"someone":211,"iving":212,"showing":213,"reen":214,"go":215,"being":216,"wal":217,"wat":218,"te":219,"ide":220,"ation":221,"de":222,"pe":223,"av":224,"there":225,"anim":226,"view":227,"ine":228,"black":229,"lip":230,"per":231,"aring":232,"red":233,"sit":234,"guy":235,"air":236,"thing":237,"tor":238,"ul":239,"char":240,"mus":241,"new":242,"oup":243,"boy":244,"by":245,"fe":246,"danc":247,"talks":248,"coo":249,"spea":250,"charac":251,"igh":252,"white":253,"music":254,"um":255,"stage":256,"ta":257,"oung":258,"group":259,"young":260,"irt":261,"shown":262,"women":263,"ly":264,"uc":265,"he":266,"clip":267,"form":268,"fr":269,"ling":270,"con":271,"ree":272,"side":273,"ve":274,"au":275,"rep":276,"movie":277,"run":278,"down":279,"dancing":280,"inter":281,"song":282,"str":283,"sho":284,"expl":285,"into":286,"food":287,"pro":288,"ue":289,"ating":290,"mon":291,"ff":292,"ice":293,"om":294,"shirt":295,"dress":296,"cr":297,"ace":298,"something":299,"ket":300,"ated":301,"pr":302,"screen":303,"kid":304,"wearing":305,"bas":306,"stand":307,"ady":308,"wor":309,"ment":310,"ard":311,"des":312,"ies":313,"around":314,"cus":315,"ig":316,"ass":317,"scen":318,"no":319,"loo":320,"sitting":321,"explain":322,"ast":323,"each":324,"tab":325,"walking":326,"our":327,"chil":328,"ning":329,"ph":330,"discus":331,"ping":332,"ding":333,"low":334,"tion":335,"pic":336,"news":337,"amer":338,"ol":339,"br":340,"par":341,"kit":342,"another":343,"ough":344,"room":345,"ters":346,"foot":347,"ll":348,"water":349,"lady":350,"af":351,"blue":352,"that":353,"row":354,"wr":355,"dien":356,"diff":357,"their":358,"ying":359,"qu":360,"interview":361,"su":362,"differ":363,"ag":364,"perform":365,"speaking":366,"cooking":367,"different":368,"fron":369,"plays":370,"make":371,"ous":372,"back":373,"off":374,"table":375,"pan":376,"sm":377,"pu":378,"chen":379,"front":380,"kitchen":381,"ds":382,"giving":383,"ten":384,"camer":385,"shows":386,"camera":387,"doing":388,"driving":389,"cer":390,"cl":391,"che":392,"ill":393,"animated":394,"cri":395,"tv":396,"then":397,"thr":398,"tu":399,"rec":400,"lding":401,"characters":402,"hor":403,"bea":404,"ate":405,"col":406,"standing":407,"scene":408,"talk":409,"ish":410,"hand":411,"prep":412,"kids":413,"making":414,"through":415,"ash":416,"over":417,"descri":418,"ive":419,"its":420,"wrest":421,"watch":422,"road":423,"spor":424,"ian":425,"hair":426,"basket":427,"figh":428,"hav":429,"mat":430,"ures":431,"girls":432,"ground":433,"les":434,"cat":435,"this":436,"aper":437,"character":438,"running":439,"od":440,"aw":441,"describ":442,"tle":443,"mal":444,"paper":445,"explaining":446,"lit":447,"rid":448,"toy":449,"phone":450,"craf":451,"get":452,"ful":453,"dog":454,"mi":455,"mov":456,"band":457,"player":458,"ps":459,"gl":460,"bi":461,"craft":462,"bu":463,"bab":464,"sports":465,"lar":466,"played":467,"ious":468,"ses":469,"dish":470,"sk":471,"ity":472,"green":473,"male":474,"performing":475,"basketball":476,"op":477,"bow":478,"kes":479,"clo":480,"small":481,"ty":482,"cou":483,"compu":484,"tain":485,"computer":486,"spe":487,"ick":488,"put":489,"inside":490,"top":491,"looking":492,"ere":493,"cle":494,"holding":495,"very":496,"fi":497,"stree":498,"ti":499,"she":500,"der":501,"players":502,"large":503,"ail":504,"ud":505,"old":506,"mine":507,"itar":508,"soc":509,"baby":510,"football":511,"fil":512,"ial":513,"dren":514,"children":515,"jum":516,"let":517,"plan":518,"three":519,"demon":520,"toge":521,"together":522,"demonstr":523,"ates":524,"ives":525,"wrestling":526,"having":527,"var":528,"audien":529,"audience":530,"animal":531,"vo":532,"duc":533,"bowl":534,"key":535,"way":536,"ink":537,"minecraft":538,"color":539,"ind":540,"sings":541,"ligh":542,"ck":543,"horse":544,"street":545,"match":546,"displaying":547,"using":548,"star":549,"soccer":550,"crow":551,"int":552,"vis":553,"glass":554,"suit":555,"hic":556,"ell":557,"fighting":558,"del":559,"riding":560,"dy":561,"him":562,"has":563,"ture":564,"speaks":565,"pres":566,"watching":567,"ip":568,"fie":569,"various":570,"guitar":571,"crowd":572,"going":573,"flo":574,"pet":575,"cy":576,"dance":577,"ant":578,"gg":579,"act":580,"child":581,"little":582,"ist":583,"jo":584,"nis":585,"ingre":586,"mix":587,"repor":588,"led":589,"bat":590,"pho":591,"they":592,"tennis":593,"outside":594,"beaut":595,"face":596,"bed":597,"photo":598,"sto":599,"discussing":600,"pie":601,"them":602,"cut":603,"motor":604,"cars":605,"fl":606,"yel":607,"door":608,"ars":609,"ouse":610,"roll":611,"sl":612,"mer":613,"gy":614,"dients":615,"high":616,"buil":617,"ingredients":618,"cook":619,"tele":620,"shoo":621,"je":622,"ser":623,"bro":624,"who":625,"race":626,"field":627,"ming":628,"ms":629,"cre":630,"voice":631,"arr":632,"review":633,"where":634,"moving":635,"taking":636,"tures":637,"mic":638,"ign":639,"uring":640,"ence":641,"chan":642,"couple":643,"pol":644,"televis":645,"floor":646,"model":647,"getting":648,"clips":649,"ct":650,"ise":651,"feat":652,"describing":653,"sur":654,"footage":655,"mar":656,"pictures":657,"plane":658,"many":659,"head":660,"television":661,"background":662,"fall":663,"guys":664,"preparing":665,"putting":666,"ste":667,"swi":668,"set":669,"beach":670,"augh":671,"sever":672,"fri":673,"appl":674,"building":675,"several":676,"eng":677,"gram":678,"eating":679,"vers":680,"fish":681,"ans":682,"near":683,"box":684,"team":685,"ath":686,"blon":687,"grap":688,"ipe":689,"base":690,"track":691,"hel":692,"interviewed":693,"chef":694,"makeup":695,"ake":696,"read":697,"motorcy":698,"walk":699,"female":700,"fam":701,"lec":702,"uck":703,"vehic":704,"yellow":705,"ush":706,"discusses":707,"walks":708,"vol":709,"stu":710,"sol":711,"ted":712,"fun":713,"sel":714,"ward":715,"was":716,"instr":717,"unch":718,"fore":719,"moun":720,"pot":721,"bob":722,"now":723,"roller":724,"board":725,"cu":726,"ru":727,"ros":728,"ary":729,"which":730,"explains":731,"jumping":732,"brown":733,"iful":734,"med":735,"like":736,"what":737,"shor":738,"animation":739,"open":740,"ions":741,"trail":742,"beautiful":743,"use":744,"trying":745,"recipe":746,"coun":747,"win":748,"lying":749,"ics":750,"spon":751,"vert":752,"tel":753,"tory":754,"et":755,"art":756,"mountain":757,"can":758,"house":759,"program":760,"ges":761,"stroller":762,"sponge":763,"glasses":764,"swim":765,"baseball":766,"narr":767,"ily":768,"advert":769,"animals":770,"hu":771,"end":772,"ure":773,"ents":774,"jud":775,"dressed":776,"gun":777,"describes":778,"cour":779,"piece":780,"wood":781,"mes":782,"work":783,"working":784,"pink":785,"aying":786,"big":787,"picture":788,"tions":789,"fire":790,"teach":791,"blonde":792,"ight":793,"ey":794,"cial":795,"ger":796,"squ":797,"laugh":798,"ition":799,"sits":800,"bus":801,"ev":802,"hands":803,"rac":804,"ade":805,"see":806,"scenes":807,"prepare":808,"pre":809,"ark":810,"recor":811,"comment":812,"produc":813,"fast":814,"lego":815,"ob":816,"bot":817,"snow":818,"bike":819,"cap":820,"fash":821,"nel":822,"hit":823,"indi":824,"toys":825,"tan":826,"na":827,"discuss":828,"sup":829,"truck":830,"tre":831,"ber":832,"ical":833,"ages":834,"fashion":835,"sa":836,"chair":837,"cele":838,"gives":839,"long":840,"bir":841,"ring":842,"looks":843,"displayed":844,"boat":845,"vehicle":846,"celebr":847,"trailer":848,"city":849,"ster":850,"mach":851,"draw":852,"mixing":853,"telling":854,"wall":855,"xt":856,"ments":857,"monkey":858,"games":859,"next":860,"part":861,"hind":862,"ju":863,"home":864,"host":865,"motorcycle":866,"light":867,"cont":868,"bet":869,"spongebob":870,"ves":871,"ny":872,"short":873,"behind":874,"live":875,"ange":876,"tech":877,"soldi":878,"hat":879,"kis":880,"scho":881,"ble":882,"if":883,"dark":884,"train":885,"ces":886,"cho":887,"ween":888,"school":889,"convers":890,"gre":891,"sun":892,"iver":893,"class":894,"ching":895,"but":896,"lds":897,"family":898,"ner":899,"ross":900,"jac":901,"under":902,"bar":903,"asian":904,"micro":905,"boo":906,"eat":907,"ped":908,"inst":909,"boys":910,"gar":911,"ally":912,"throw":913,"ider":914,"cas":915,"cover":916,"folding":917,"try":918,"instruc":919,"demonstrating":920,"compet":921,"cur":922,"doll":923,"vege":924,"ech":925,"shooting":926,"drives":927,"appe":928,"pool":929,"pul":930,"ator":931,"ama":932,"judges":933,"bunch":934,"cor":935,"egg":936,"ident":937,"rea":938,"film":939,"swimming":940,"bs":941,"ep":942,"pup":943,"advertise":944,"ches":945,"between":946,"por":947,"conversation":948,"speech":949,"fir":950,"pur":951,"along":952,"gameplay":953,"land":954,"ley":955,"channel":956,"during":957,"runs":958,"lights":959,"min":960,"ang":961,"tori":962,"sty":963,"forest":964,"spo":965,"gym":966,"flying":967,"does":968,"exper":969,"flow":970,"after":971,"makes":972,"iling":973,"fac":974,"advertisement":975,"line":976,"commer":977,"my":978,"gets":979,"tur":980,"bag":981,"sci":982,"ving":983,"wrestl":984,"rap":985,"plate":986,"reporter":987,"super":988,"plac":989,"ins":990,"stir":991,"rol":992,"stands":993,"pain":994,"come":995,"park":996,"features":997,"res":998,"you":999,"place":1000,"pian":1001,"commercial":1002,"have":1003,"microphone":1004,"spider":1005,"away":1006,"da":1007,"ror":1008,"war":1009,"piano":1010,"ides":1011,"tram":1012,"pour":1013,"stud":1014,"dio":1015,"cutting":1016,"tato":1017,"day":1018,"wav":1019,"machine":1020,"ering":1021,"icks":1022,"pen":1023,"ines":1024,"images":1025,"potato":1026,"teen":1027,"court":1028,"things":1029,"ium":1030,"grass":1031,"works":1032,"fight":1033,"tables":1034,"intro":1035,"competition":1036,"still":1037,"trampol":1038,"acting":1039,"time":1040,"jacket":1041,"airplane":1042,"ican":1043,"body":1044,"laughing":1045,"made":1046,"not":1047,"sub":1048,"icken":1049,"trampoline":1050,"ni":1051,"stove":1052,"soldiers":1053,"recording":1054,"self":1055,"drawing":1056,"experi":1057,"mas":1058,"chicken":1059,"actor":1060,"ca":1061,"meat":1062,"ons":1063,"ices":1064,"sil":1065,"persons":1066,"ken":1067,"py":1068,"cal":1069,"drin":1070,"ney":1071,"ends":1072,"add":1073,"engine":1074,"indian":1075,"across":1076,"letter":1077,"att":1078,"ready":1079,"before":1080,"lan":1081,"enter":1082,"hill":1083,"trees":1084,"graph":1085,"cess":1086,"cast":1087,"iting":1088,"rock":1089,"aga":1090,"tex":1091,"coat":1092,"night":1093,"din":1094,"lot":1095,"sky":1096,"racing":1097,"four":1098,"rel":1099,"bal":1100,"ear":1101,"past":1102,"shot":1103,"look":1104,"fin":1105,"iz":1106,"enjo":1107,"shop":1108,"em":1109,"bes":1110,"oil":1111,"pon":1112,"singer":1113,"tw":1114,"vegetables":1115,"oth":1116,"coming":1117,"studio":1118,"ft":1119,"ai":1120,"elec":1121,"rest":1122,"torial":1123,"perfor":1124,"dances":1125,"sy":1126,"few":1127,"reading":1128,"slow":1129,"demonstrates":1130,"product":1131,"present":1132,"goal":1133,"pract":1134,"prof":1135,"performs":1136,"puts":1137,"cloth":1138,"hero":1139,"fer":1140,"mor":1141,"ays":1142,"sal":1143,"sim":1144,"anc":1145,"motion":1146,"takes":1147,"astic":1148,"tutorial":1149,"book":1150,"cks":1151,"were":1152,"trav":1153,"eye":1154,"sn":1155,"concer":1156,"ject":1157,"fing":1158,"polit":1159,"police":1160,"outdoor":1161,"first":1162,"ream":1163,"holds":1164,"don":1165,"mil":1166,"ckey":1167,"pong":1168,"pt":1169,"pat":1170,"sle":1171,"sea":1172,"lim":1173,"ession":1174,"here":1175,"ones":1176,"runway":1177,"cup":1178,"applying":1179,"funny":1180,"mance":1181,"wing":1182,"adding":1183,"ashing":1184,"onto":1185,"sex":1186,"ba":1187,"flip":1188,"laying":1189,"dogs":1190,"angr":1191,"leg":1192,"photos":1193,"round":1194,"world":1195,"purple":1196,"area":1197,"take":1198,"travel":1199,"acks":1200,"ations":1201,"store":1202,"concert":1203,"brea":1204,"care":1205,"ual":1206,"ities":1207,"stick":1208,"teaching":1209,"action":1210,"graphic":1211,"techno":1212,"hot":1213,"amp":1214,"rides":1215,"introduc":1216,"hockey":1217,"orange":1218,"whe":1219,"auce":1220,"against":1221,"lis":1222,"sof":1223,"speak":1224,"langu":1225,"lap":1226,"dow":1227,"quest":1228,"full":1229,"ature":1230,"icing":1231,"friend":1232,"pow":1233,"io":1234,"ry":1235,"erc":1236,"meal":1237,"logy":1238,"older":1239,"ach":1240,"chas":1241,"poke":1242,"exerc":1243,"hap":1244,"sauce":1245,"ump":1246,"prepar":1247,"models":1248,"kissing":1249,"language":1250,"image":1251,"poin":1252,"aur":1253,"vice":1254,"wa":1255,"jumps":1256,"president":1257,"wards":1258,"foreign":1259,"well":1260,"fix":1261,"others":1262,"angry":1263,"dle":1264,"thes":1265,"friends":1266,"spoon":1267,"bill":1268,"tou":1269,"la":1270,"birds":1271,"pokemon":1272,"event":1273,"unk":1274,"just":1275,"grey":1276,"beside":1277,"bing":1278,"river":1279,"story":1280,"plastic":1281,"brush":1282,"performance":1283,"ray":1284,"ani":1285,"stad":1286,"interviewing":1287,"inform":1288,"highlights":1289,"squid":1290,"ven":1291,"uses":1292,"tries":1293,"desk":1294,"clu":1295,"speed":1296,"inton":1297,"slides":1298,"contest":1299,"adds":1300,"ght":1301,"fold":1302,"stadium":1303,"stri":1304,"restaur":1305,"blo":1306,"oce":1307,"rain":1308,"ship":1309,"auto":1310,"tig":1311,"when":1312,"clothes":1313,"fred":1314,"appears":1315,"ben":1316,"ater":1317,"gray":1318,"ave":1319,"electr":1320,"ocean":1321,"ants":1322,"bik":1323,"life":1324,"athlet":1325,"seg":1326,"close":1327,"bad":1328,"ham":1329,"drive":1330,"country":1331,"drinking":1332,"posing":1333,"moves":1334,"falls":1335,"mur":1336,"taken":1337,"commentating":1338,"comp":1339,"beauty":1340,"window":1341,"ior":1342,"seen":1343,"wrestlers":1344,"letterman":1345,"profession":1346,"cand":1347,"mother":1348,"tra":1349,"right":1350,"pieces":1351,"technology":1352,"restaurant":1353,"bur":1354,"tail":1355,"volley":1356,"instructions":1357,"segment":1358,"will":1359,"scor":1360,"couch":1361,"science":1362,"mid":1363,"pack":1364,"videos":1365,"goes":1366,"pants":1367,"movies":1368,"information":1369,"que":1370,"ples":1371,"iven":1372,"contain":1373,"design":1374,"aired":1375,"move":1376,"compe":1377,"lf":1378,"tie":1379,"ese":1380,"wheel":1381,"featuring":1382,"opening":1383,"cking":1384,"ality":1385,"net":1386,"mis":1387,"tree":1388,"acc":1389,"outf":1390,"cts":1391,"good":1392,"gymn":1393,"metal":1394,"nood":1395,"commentary":1396,"enjoying":1397,"ton":1398,"beg":1399,"drink":1400,"falling":1401,"dough":1402,"mu":1403,"ance":1404,"showcas":1405,"turn":1406,"david":1407,"talent":1408,"asking":1409,"students":1410,"ef":1411,"pass":1412,"cats":1413,"dolls":1414,"potatoes":1415,"enting":1416,"demonstration":1417,"tsh":1418,"disney":1419,"ctor":1420,"smo":1421,"iron":1422,"gging":1423,"text":1424,"essing":1425,"teams":1426,"fol":1427,"professional":1428,"ather":1429,"clim":1430,"ow":1431,"rot":1432,"space":1433,"tank":1434,"kno":1435,"ls":1436,"mul":1437,"scar":1438,"ising":1439,"icy":1440,"uni":1441,"presenting":1442,"cell":1443,"hal":1444,"haired":1445,"ely":1446,"items":1447,"mountains":1448,"hitting":1449,"freddy":1450,"gen":1451,"test":1452,"robot":1453,"commen":1454,"throwing":1455,"slideshow":1456,"tshirt":1457,"sand":1458,"aveng":1459,"eping":1460,"ia":1461,"lad":1462,"horses":1463,"met":1464,"chr":1465,"more":1466,"style":1467,"ging":1468,"hall":1469,"dia":1470,"forms":1471,"frying":1472,"parts":1473,"az":1474,"bor":1475,"nice":1476,"press":1477,"narrator":1478,"rolling":1479,"presentation":1480,"anchor":1481,"follow":1482,"himself":1483,"pouring":1484,"less":1485,"ats":1486,"nail":1487,"towards":1488,"ited":1489,"instru":1490,"listen":1491,"sed":1492,"ved":1493,"cles":1494,"far":1495,"tem":1496,"spec":1497,"bird":1498,"middle":1499,"used":1500,"pets":1501,"party":1502,"smiling":1503,"dirt":1504,"filming":1505,"wooden":1506,"swe":1507,"saying":1508,"ises":1509,"ori":1510,"photograph":1511,"human":1512,"covered":1513,"avengers":1514,"ery":1515,"compan":1516,"laptop":1517,"esting":1518,"tom":1519,"oney":1520,"anime":1521,"multi":1522,"feed":1523,"obama":1524,"ods":1525,"pop":1526,"wear":1527,"office":1528,"bile":1529,"gard":1530,"lab":1531,"idge":1532,"able":1533,"lored":1534,"mobile":1535,"elf":1536,"demo":1537,"words":1538,"dro":1539,"ele":1540,"push":1541,"ini":1542,"square":1543,"mouse":1544,"comes":1545,"word":1546,"sound":1547,"ells":1548,"mir":1549,"ivers":1550,"clean":1551,"cute":1552,"cir":1553,"tour":1554,"love":1555,"eyes":1556,"eggs":1557,"rim":1558,"your":1559,"doctor":1560,"interviews":1561,"ashes":1562,"prepares":1563,"noodles":1564,"gs":1565,"liqu":1566,"point":1567,"colour":1568,"narrates":1569,"bottle":1570,"been":1571,"cartoons":1572,"shots":1573,"athletes":1574,"lead":1575,"dressing":1576,"lin":1577,"pir":1578,"son":1579,"sign":1580,"ould":1581,"ital":1582,"colored":1583,"clothing":1584,"surround":1585,"num":1586,"topic":1587,"itary":1588,"outdoors":1589,"exc":1590,"bra":1591,"ski":1592,"battle":1593,"series":1594,"stuff":1595,"oc":1596,"outh":1597,"apping":1598,"type":1599,"jump":1600,"rug":1601,"glo":1602,"cow":1603,"lif":1604,"lies":1605,"cream":1606,"pes":1607,"cuts":1608,"cube":1609,"afr":1610,"display":1611,"american":1612,"brit":1613,"watches":1614,"famous":1615,"lic":1616,"invol":1617,"ared":1618,"squidward":1619,"comedy":1620,"liquid":1621,"golf":1622,"panel":1623,"cake":1624,"ips":1625,"tage":1626,"classroom":1627,"ban":1628,"pit":1629,"ra":1630,"gather":1631,"span":1632,"offic":1633,"lyr":1634,"struc":1635,"military":1636,"montage":1637,"cheering":1638,"colorful":1639,"hang":1640,"ked":1641,"ride":1642,"iness":1643,"ians":1644,"sexy":1645,"gymnast":1646,"living":1647,"stair":1648,"ica":1649,"throws":1650,"parked":1651,"silver":1652,"sor":1653,"report":1654,"reviewing":1655,"rugby":1656,"bath":1657,"chur":1658,"chop":1659,"vi":1660,"aves":1661,"cooks":1662,"tiger":1663,"scri":1664,"ape":1665,"multiple":1666,"hard":1667,"wed":1668,"murray":1669,"volleyball":1670,"bc":1671,"fan":1672,"lake":1673,"direc":1674,"item":1675,"counter":1676,"partic":1677,"puppy":1678,"port":1679,"ladies":1680,"gle":1681,"hea":1682,"pies":1683,"adul":1684,"sha":1685,"blow":1686,"filled":1687,"wrestler":1688,"money":1689,"too":1690,"educ":1691,"asks":1692,"drag":1693,"gold":1694,"ette":1695,"stirring":1696,"hip":1697,"engl":1698,"kept":1699,"shrim":1700,"webs":1701,"serve":1702,"fireworks":1703,"fixing":1704,"website":1705,"hits":1706,"map":1707,"zing":1708,"tool":1709,"acking":1710,"woods":1711,"depic":1712,"ills":1713,"products":1714,"questions":1715,"ot":1716,"ss":1717,"ann":1718,"rope":1719,"reviews":1720,"called":1721,"own":1722,"sco":1723,"gami":1724,"popul":1725,"parking":1726,"clinton":1727,"business":1728,"flower":1729,"paint":1730,"origami":1731,"cage":1732,"fly":1733,"fig":1734,"had":1735,"tim":1736,"arrow":1737,"bear":1738,"interior":1739,"cooked":1740,"puppies":1741,"subscri":1742,"mirror":1743,"bicy":1744,"kni":1745,"bles":1746,"wears":1747,"musical":1748,"help":1749,"spanish":1750,"lyrics":1751,"shrimp":1752,"says":1753,"device":1754,"busy":1755,"pours":1756,"knife":1757,"equ":1758,"pair":1759,"yout":1760,"ists":1761,"beard":1762,"scream":1763,"process":1764,"lecture":1765,"waves":1766,"vy":1767,"roof":1768,"drum":1769,"bridge":1770,"great":1771,"youtu":1772,"bin":1773,"hi":1774,"lam":1775,"oper":1776,"argu":1777,"need":1778,"dresses":1779,"teacher":1780,"mask":1781,"syste":1782,"mortal":1783,"hers":1784,"tit":1785,"mel":1786,"shoots":1787,"earth":1788,"practicing":1789,"sleeping":1790,"education":1791,"starts":1792,"setting":1793,"places":1794,"brun":1795,"rece":1796,"also":1797,"mee":1798,"wild":1799,"both":1800,"boiling":1801,"reporting":1802,"finish":1803,"erial":1804,"ret":1805,"streets":1806,"huge":1807,"electron":1808,"hur":1809,"pa":1810,"ys":1811,"online":1812,"lear":1813,"tator":1814,"answ":1815,"vehicles":1816,"pret":1817,"object":1818,"exercise":1819,"points":1820,"oven":1821,"inclu":1822,"ings":1823,"ert":1824,"activ":1825,"surf":1826,"opens":1827,"prepared":1828,"same":1829,"scient":1830,"company":1831,"popular":1832,"celebrity":1833,"butter":1834,"brunette":1835,"father":1836,"swing":1837,"interacting":1838,"flag":1839,"tware":1840,"software":1841,"rying":1842,"inning":1843,"oud":1844,"irts":1845,"tress":1846,"pep":1847,"bicycle":1848,"herself":1849,"nature":1850,"driver":1851,"graphics":1852,"kind":1853,"tells":1854,"soup":1855,"town":1856,"tricks":1857,"neck":1858,"install":1859,"pretty":1860,"du":1861,"flies":1862,"lly":1863,"sters":1864,"carrying":1865,"spr":1866,"seas":1867,"phones":1868,"tub":1869,"shoot":1870,"experiment":1871,"dino":1872,"attem":1873,"fox":1874,"boxing":1875,"experience":1876,"christ":1877,"youtube":1878,"cing":1879,"ilation":1880,"seat":1881,"special":1882,"outfit":1883,"heavy":1884,"system":1885,"stop":1886,"leaves":1887,"proble":1888,"ali":1889,"grand":1890,"folds":1891,"poses":1892,"ular":1893,"tips":1894,"batter":1895,"helmet":1896,"discussion":1897,"compilation":1898,"00":1899,"bul":1900,"sport":1901,"catch":1902,"colors":1903,"als":1904,"coll":1905,"tran":1906,"dancers":1907,"crying":1908,"batman":1909,"placed":1910,"actors":1911,"every":1912,"kil":1913,"vill":1914,"indoor":1915,"onions":1916,"sem":1917,"saur":1918,"flowers":1919,"announ":1920,"mess":1921,"hop":1922,"history":1923,"shorts":1924,"painting":1925,"slowly":1926,"break":1927,"chasing":1928,"pal":1929,"path":1930,"hold":1931,"hood":1932,"rocks":1933,"figu":1934,"wedding":1935,"bre":1936,"stat":1937,"stars":1938,"applies":1939,"celebrating":1940,"bers":1941,"jap":1942,"carri":1943,"balls":1944,"helic":1945,"half":1946,"kom":1947,"sion":1948,"vel":1949,"sear":1950,"motorcycles":1951,"narrating":1952,"course":1953,"garlic":1954,"scores":1955,"showcasing":1956,"listening":1957,"english":1958,"best":1959,"pi":1960,"vine":1961,"mag":1962,"slide":1963,"dinosaur":1964,"figure":1965,"helicop":1966,"kombat":1967,"bit":1968,"brow":1969,"fans":1970,"ient":1971,"iny":1972,"media":1973,"stream":1974,"iety":1975,"explo":1976,"surfing":1977,"rub":1978,"attack":1979,"turns":1980,"instruments":1981,"involving":1982,"done":1983,"list":1984,"vic":1985,"newsc":1986,"phil":1987,"rapping":1988,"spiderman":1989,"waving":1990,"power":1991,"number":1992,"stairs":1993,"subscribe":1994,"japan":1995,"bie":1996,"dun":1997,"loc":1998,"unt":1999,"aster":2000,"start":2001,"powder":2002,"viol":2003,"meeting":2004,"tun":2005,"wea":2006,"left":2007,"check":2008,"hugging":2009,"events":2010,"added":2011,"touch":2012,"llywood":2013,"ction":2014,"ded":2015,"than":2016,"amazing":2017,"bikini":2018,"african":2019,"3d":2020,"given":2021,"hon":2022,"ler":2023,"costu":2024,"preforms":2025,"candy":2026,"ib":2027,"thor":2028,"fect":2029,"clapping":2030,"artist":2031,"garden":2032,"church":2033,"lion":2034,"alth":2035,"tow":2036,"iding":2037,"logo":2038,"spices":2039,"repair":2040,"appear":2041,"hanging":2042,"jun":2043,"pig":2044,"val":2045,"zo":2046,"tract":2047,"kitten":2048,"writing":2049,"market":2050,"tance":2051,"shopping":2052,"ness":2053,"zz":2054,"ender":2055,"quar":2056,"material":2057,"oppon":2058,"seeing":2059,"bald":2060,"container":2061,"ame":2062,"mouth":2063,"scoo":2064,"vent":2065,"ref":2066,"aps":2067,"comple":2068,"monster":2069,"filmed":2070,"buildings":2071,"politics":2072,"happen":2073,"pointing":2074,"scary":2075,"uniform":2076,"surrounded":2077,"fat":2078,"five":2079,"yard":2080,"arms":2081,"dig":2082,"shirts":2083,"got":2084,"decor":2085,"cheer":2086,"babies":2087,"serving":2088,"blond":2089,"stirs":2090,"bloo":2091,"tro":2092,"won":2093,"inj":2094,"actress":2095,"beat":2096,"fully":2097,"slam":2098,"jeans":2099,"kiss":2100,"garage":2101,"hole":2102,"tall":2103,"load":2104,"ames":2105,"selfie":2106,"finger":2107,"costume":2108,"bread":2109,"fic":2110,"bel":2111,"viewers":2112,"rolls":2113,"mini":2114,"teenag":2115,"excited":2116,"equip":2117,"including":2118,"awn":2119,"cn":2120,"call":2121,"camp":2122,"gian":2123,"wag":2124,"real":2125,"should":2126,"project":2127,"seems":2128,"flips":2129,"eleph":2130,"gymnastics":2131,"figures":2132,"season":2133,"attemp":2134,"lat":2135,"las":2136,"nat":2137,"ron":2138,"ram":2139,"spl":2140,"assem":2141,"bling":2142,"aving":2143,"health":2144,"types":2145,"mixes":2146,"soldier":2147,"superhero":2148,"placing":2149,"pirates":2150,"electronic":2151,"kr":2152,"tic":2153,"van":2154,"arm":2155,"mem":2156,"station":2157,"ird":2158,"dium":2159,"provid":2160,"plants":2161,"case":2162,"instruction":2163,"officer":2164,"helicopter":2165,"preview":2166,"wars":2167,"washing":2168,"rown":2169,"docu":2170,"deb":2171,"suits":2172,"clear":2173,"ific":2174,"vegetable":2175,"gener":2176,"den":2177,"why":2178,"terror":2179,"driven":2180,"skin":2181,"couples":2182,"sunglasses":2183,"drinks":2184,"tails":2185,"sweater":2186,"giant":2187,"dum":2188,"gan":2189,"gent":2190,"wit":2191,"ending":2192,"actions":2193,"els":2194,"blic":2195,"views":2196,"ways":2197,"juice":2198,"sims":2199,"snake":2200,"donal":2201,"question":2202,"badm":2203,"competing":2204,"dragon":2205,"eu":2206,"ged":2207,"meet":2208,"construc":2209,"bub":2210,"skating":2211,"chairs":2212,"lor":2213,"late":2214,"moon":2215,"truc":2216,"delic":2217,"reporters":2218,"flash":2219,"yelling":2220,"training":2221,"entertain":2222,"folded":2223,"british":2224,"equipment":2225,"fut":2226,"sword":2227,"sticks":2228,"sequ":2229,"prin":2230,"waterfall":2231,"horror":2232,"teenage":2233,"contestant":2234,"times":2235,"stor":2236,"stret":2237,"pose":2238,"comments":2239,"conduc":2240,"explor":2241,"cheese":2242,"jects":2243,"factory":2244,"student":2245,"political":2246,"smoking":2247,"rout":2248,"tar":2249,"lete":2250,"bean":2251,"log":2252,"crash":2253,"award":2254,"judge":2255,"hamster":2256,"pepper":2257,"christmas":2258,"fru":2259,"explan":2260,"highway":2261,"advertising":2262,"individ":2263,"accident":2264,"followed":2265,"shaking":2266,"fur":2267,"give":2268,"har":2269,"reality":2270,"public":2271,"colle":2272,"medic":2273,"techni":2274,"faces":2275,"relation":2276,"begins":2277,"hallway":2278,"cleaning":2279,"iso":2280,"ens":2281,"ences":2282,"really":2283,"abo":2284,"tire":2285,"athlete":2286,"reads":2287,"winning":2288,"drums":2289,"lays":2290,"ffic":2291,"males":2292,"episo":2293,"hillary":2294,"practice":2295,"baking":2296,"fu":2297,"han":2298,"kin":2299,"nor":2300,"hosp":2301,"coach":2302,"songs":2303,"jeep":2304,"celebrities":2305,"pasta":2306,"delicious":2307,"individual":2308,"hospital":2309,"aid":2310,"daugh":2311,"testing":2312,"ina":2313,"ison":2314,"roman":2315,"singers":2316,"exam":2317,"bikes":2318,"dishes":2319,"shooter":2320,"ference":2321,"milk":2322,"commentator":2323,"bright":2324,"ky":2325,"ners":2326,"cha":2327,"icking":2328,"shore":2329,"variety":2330,"bedroom":2331,"steps":2332,"eats":2333,"introducing":2334,"happy":2335,"club":2336,"striped":2337,"compete":2338,"honda":2339,"document":2340,"ax":2341,"cab":2342,"itor":2343,"ker":2344,"loud":2345,"main":2346,"ption":2347,"vs":2348,"army":2349,"mechan":2350,"kets":2351,"most":2352,"dian":2353,"ships":2354,"dead":2355,"certain":2356,"skil":2357,"fried":2358,"apply":2359,"pulls":2360,"dinner":2361,"lifting":2362,"scientist":2363,"badminton":2364,"cam":2365,"thin":2366,"peoples":2367,"univers":2368,"ational":2369,"quick":2370,"aged":2371,"commenting":2372,"routine":2373,"episode":2374,"boun":2375,"free":2376,"fake":2377,"ied":2378,"tles":2379,"cher":2380,"sting":2381,"app":2382,"appro":2383,"touching":2384,"climbing":2385,"drop":2386,"skiing":2387,"adults":2388,"daughter":2389,"center":2390,"hun":2391,"ko":2392,"ned":2393,"punch":2394,"without":2395,"showed":2396,"seated":2397,"america":2398,"films":2399,"modeling":2400,"guns":2401,"pulling":2402,"pony":2403,"salt":2404,"waiting":2405,"traffic":2406,"much":2407,"japanese":2408,"20":2409,"hy":2410,"mup":2411,"ural":2412,"eath":2413,"shap":2414,"upcoming":2415,"musicians":2416,"desert":2417,"parod":2418,"skills":2419,"selves":2420,"legos":2421,"outfits":2422,"cket":2423,"fence":2424,"skit":2425,"abs":2426,"dies":2427,"podium":2428,"cond":2429,"writ":2430,"mario":2431,"count":2432,"breaking":2433,"block":2434,"squarepants":2435,"donald":2436,"grow":2437,"jim":2438,"cost":2439,"mom":2440,"math":2441,"proper":2442,"igning":2443,"sporting":2444,"flat":2445,"flooring":2446,"teaches":2447,"comedian":2448,"contestants":2449,"tools":2450,"cross":2451,"iled":2452,"ale":2453,"ically":2454,"compl":2455,"weight":2456,"conference":2457,"shoes":2458,"parrot":2459,"smart":2460,"collec":2461,"laughs":2462,"nails":2463,"weather":2464,"jungle":2465,"parody":2466,"rice":2467,"chat":2468,"ades":2469,"lots":2470,"ights":2471,"promo":2472,"bio":2473,"themselves":2474,"step":2475,"volks":2476,"name":2477,"izz":2478,"traveling":2479,"benef":2480,"feeding":2481,"teenagers":2482,"college":2483,"above":2484,"broad":2485,"states":2486,"acts":2487,"weap":2488,"avor":2489,"pick":2490,"control":2491,"legs":2492,"bench":2493,"arguing":2494,"opponent":2495,"sat":2496,"carpet":2497,"iles":2498,"guest":2499,"mato":2500,"sidewalk":2501,"ellen":2502,"wins":2503,"monkeys":2504,"presented":2505,"photographs":2506,"gathered":2507,"krue":2508,"gentle":2509,"ced":2510,"ug":2511,"wind":2512,"ye":2513,"ched":2514,"iced":2515,"gress":2516,"floating":2517,"change":2518,"surface":2519,"barbie":2520,"knocking":2521,"screaming":2522,"bbc":2523,"find":2524,"hn":2525,"lay":2526,"ze":2527,"chines":2528,"conf":2529,"aud":2530,"strange":2531,"brain":2532,"chee":2533,"held":2534,"records":2535,"named":2536,"safe":2537,"sunny":2538,"books":2539,"landsc":2540,"elephant":2541,"skillet":2542,"dest":2543,"pac":2544,"ramp":2545,"ised":2546,"atures":2547,"gear":2548,"eling":2549,"blender":2550,"posit":2551,"details":2552,"sugar":2553,"creating":2554,"wave":2555,"travelling":2556,"scoring":2557,"globe":2558,"cnn":2559,"krueger":2560,"buc":2561,"eas":2562,"gor":2563,"site":2564,"tomato":2565,"attract":2566,"ires":2567,"learning":2568,"debate":2569,"dou":2570,"eyel":2571,"hul":2572,"ile":2573,"mun":2574,"pas":2575,"rush":2576,"tea":2577,"ene":2578,"orches":2579,"covers":2580,"distance":2581,"salad":2582,"activities":2583,"europe":2584,"volkswag":2585,"mc":2586,"zom":2587,"onion":2588,"apple":2589,"trans":2590,"checking":2591,"catching":2592,"matches":2593,"john":2594,"discussed":2595,"styles":2596,"attacking":2597,"emp":2598,"construction":2599,"documentary":2600,"dunk":2601,"gree":2602,"page":2603,"rand":2604,"tiny":2605,"mans":2606,"card":2607,"cool":2608,"foods":2609,"starting":2610,"objects":2611,"nae":2612,"sort":2613,"kne":2614,"mass":2615,"pri":2616,"ske":2617,"yo":2618,"aren":2619,"ench":2620,"enga":2621,"escap":2622,"aylor":2623,"ution":2624,"monitor":2625,"clou":2626,"creature":2627,"button":2628,"enjoy":2629,"introduction":2630,"speaker":2631,"latest":2632,"orchestra":2633,"lines":2634,"ns":2635,"tes":2636,"dry":2637,"apart":2638,"apron":2639,"pect":2640,"slicing":2641,"german":2642,"sofa":2643,"tigers":2644,"trucks":2645,"chinese":2646,"bun":2647,"cli":2648,"mall":2649,"rick":2650,"sad":2651,"taylor":2652,"ustr":2653,"wash":2654,"oured":2655,"atta":2656,"cart":2657,"bom":2658,"ival":2659,"amat":2660,"ula":2661,"bowls":2662,"marri":2663,"bottom":2664,"attacks":2665,"entering":2666,"eyebrow":2667,"politic":2668,"circle":2669,"nas":2670,"suc":2671,"island":2672,"stuck":2673,"lipstick":2674,"aging":2675,"pans":2676,"tube":2677,"fights":2678,"described":2679,"plant":2680,"snowy":2681,"cause":2682,"exercises":2683,"preparation":2684,"natural":2685,"sequence":2686,"empty":2687,"wine":2688,"zen":2689,"inten":2690,"ism":2691,"deep":2692,"mixer":2693,"chefs":2694,"answering":2695,"aquar":2696,"gal":2697,"gro":2698,"kicks":2699,"lid":2700,"ware":2701,"rew":2702,"regard":2703,"lemon":2704,"level":2705,"gamer":2706,"ute":2707,"fry":2708,"captain":2709,"attractive":2710,"ire":2711,"jack":2712,"ki":2713,"san":2714,"tack":2715,"uf":2716,"lect":2717,"acho":2718,"forth":2719,"grav":2720,"audi":2721,"craw":2722,"parents":2723,"kisses":2724,"covering":2725,"alien":2726,"princess":2727,"jimmy":2728,"broadcast":2729,"hulk":2730,"cros":2731,"fit":2732,"ible":2733,"ister":2734,"plat":2735,"ility":2736,"moder":2737,"apped":2738,"rio":2739,"avig":2740,"talked":2741,"duck":2742,"creatures":2743,"polish":2744,"firing":2745,"superman":2746,"pushing":2747,"passing":2748,"bon":2749,"dat":2750,"dad":2751,"found":2752,"pump":2753,"pizz":2754,"rab":2755,"env":2756,"trump":2757,"ought":2758,"preten":2759,"curr":2760,"owl":2761,"killing":2762,"aquarium":2763,"regarding":2764,"cave":2765,"gest":2766,"nic":2767,"sam":2768,"tat":2769,"want":2770,"anal":2771,"issu":2772,"whis":2773,"adjust":2774,"blind":2775,"scared":2776,"tri":2777,"situ":2778,"ult":2779,"fee":2780,"groups":2781,"cons":2782,"internet":2783,"cheers":2784,"catches":2785,"micha":2786,"boxes":2787,"patient":2788,"diagram":2789,"azy":2790,"pirate":2791,"adult":2792,"newscaster":2793,"201":2794,"environ":2795,"michael":2796,"ets":2797,"fle":2798,"non":2799,"ninj":2800,"zard":2801,"spray":2802,"sets":2803,"secre":2804,"libr":2805,"displays":2806,"frozen":2807,"tee":2808,"sheet":2809,"job":2810,"swift":2811,"workers":2812,"corner":2813,"fancy":2814,"problem":2815,"benefits":2816,"nasa":2817,"pizza":2818,"library":2819,"bies":2820,"sive":2821,"vest":2822,"yor":2823,"inju":2824,"ener":2825,"hollywood":2826,"removing":2827,"import":2828,"shout":2829,"french":2830,"explained":2831,"tablet":2832,"clay":2833,"cycle":2834,"serious":2835,"purse":2836,"ized":2837,"instrument":2838,"random":2839,"issues":2840,"cof":2841,"ghost":2842,"ha":2843,"may":2844,"national":2845,"rail":2846,"ining":2847,"hotel":2848,"sta":2849,"stone":2850,"role":2851,"carrot":2852,"gaz":2853,"twor":2854,"elder":2855,"shar":2856,"sharing":2857,"taste":2858,"interesting":2859,"nose":2860,"petting":2861,"mixed":2862,"jet":2863,"feature":2864,"syn":2865,"electric":2866,"drops":2867,"gloves":2868,"bearded":2869,"data":2870,"injured":2871,"important":2872,"bum":2873,"did":2874,"react":2875,"ief":2876,"spinning":2877,"trick":2878,"histor":2879,"enters":2880,"god":2881,"flour":2882,"highlight":2883,"nament":2884,"treat":2885,"twink":2886,"hammer":2887,"climbs":2888,"particip":2889,"dunks":2890,"digital":2891,"instructional":2892,"ino":2893,"ana":2894,"plo":2895,"ative":2896,"impro":2897,"poss":2898,"frog":2899,"weird":2900,"cru":2901,"wrestle":2902,"voices":2903,"medical":2904,"facial":2905,"beginning":2906,"problems":2907,"announcer":2908,"arena":2909,"tattoo":2910,"fair":2911,"jar":2912,"pil":2913,"south":2914,"ugg":2915,"thrown":2916,"order":2917,"lift":2918,"dec":2919,"ults":2920,"crashes":2921,"crazy":2922,"picks":2923,"mike":2924,"opin":2925,"reports":2926,"specs":2927,"particular":2928,"searching":2929,"laser":2930,"relationships":2931,"volkswagen":2932,"skelet":2933,"cliff":2934,"secret":2935,"coffee":2936,"ders":2937,"hum":2938,"rad":2939,"ured":2940,"chall":2941,"rocket":2942,"icket":2943,"ively":2944,"grill":2945,"comput":2946,"combat":2947,"cere":2948,"social":2949,"chocol":2950,"launch":2951,"blocks":2952,"accent":2953,"swinging":2954,"victory":2955,"members":2956,"landscape":2957,"modern":2958,"cil":2959,"dam":2960,"dash":2961,"know":2962,"kicking":2963,"signing":2964,"would":2965,"theft":2966,"ids":2967,"orous":2968,"kee":2969,"ams":2970,"among":2971,"tracks":2972,"web":2973,"teas":2974,"umes":2975,"cricket":2976,"phys":2977,"talkshow":2978,"spect":2979,"mickey":2980,"fishes":2981,"rubi":2982,"teens":2983,"introduces":2984,"hiking":2985,"village":2986,"brell":2987,"locations":2988,"quickly":2989,"grocer":2990,"ninja":2991,"kru":2992,"mers":2993,"ose":2994,"sket":2995,"tap":2996,"infront":2997,"esh":2998,"tos":2999,"leather":3000,"aret":3001,"lope":3002,"spir":3003,"tray":3004,"gue":3005,"commun":3006,"umbrell":3007,"heart":3008,"forming":3009,"closed":3010,"tied":3011,"keyboard":3012,"changing":3013,"solving":3014,"underwater":3015,"grassy":3016,"paste":3017,"tournament":3018,"stuffed":3019,"director":3020,"clouds":3021,"eyebrows":3022,"intense":3023,"twork":3024,"twinkle":3025,"cig":3026,"gers":3027,"gas":3028,"hil":3029,"iphone":3030,"kick":3031,"ome":3032,"pin":3033,"wish":3034,"year":3035,"incre":3036,"these":3037,"oul":3038,"ately":3039,"staring":3040,"leon":3041,"adow":3042,"feet":3043,"spears":3044,"related":3045,"wheels":3046,"future":3047,"safety":3048,"current":3049,"york":3050,"dic":3051,"dess":3052,"favor":3053,"uts":3054,"enem":3055,"because":3056,"interviewer":3057,"letters":3058,"heads":3059,"aught":3060,"hosting":3061,"flags":3062,"costumes":3063,"computers":3064,"chocolate":3065,"favorite":3066,"enemies":3067,"dles":3068,"nur":3069,"pad":3070,"ues":3071,"theater":3072,"aling":3073,"reacting":3074,"stun":3075,"rots":3076,"bol":3077,"lizard":3078,"shape":3079,"stra":3080,"planet":3081,"nearby":3082,"angles":3083,"simul":3084,"presidential":3085,"signs":3086,"depicts":3087,"owner":3088,"lambor":3089,"villain":3090,"statue":3091,"touchdown":3092,"scooter":3093,"19":3094,"die":3095,"fa":3096,"kill":3097,"lunch":3098,"narrow":3099,"pc":3100,"poured":3101,"ran":3102,"wore":3103,"edge":3104,"drain":3105,"dramat":3106,"magaz":3107,"fresh":3108,"crit":3109,"backflip":3110,"jokes":3111,"flu":3112,"function":3113,"hats":3114,"knocks":3115,"scarf":3116,"sandwi":3117,"born":3118,"chopping":3119,"score":3120,"tunnel":3121,"attempting":3122,"target":3123,"cred":3124,"os":3125,"si":3126,"ardo":3127,"reve":3128,"meas":3129,"carib":3130,"somebody":3131,"dol":3132,"united":3133,"lips":3134,"fects":3135,"based":3136,"description":3137,"litter":3138,"childrens":3139,"motorbike":3140,"texting":3141,"election":3142,"speeds":3143,"lesson":3144,"sounds":3145,"cowboy":3146,"bathroom":3147,"tower":3148,"zoom":3149,"kruger":3150,"caribbean":3151,"any":3152,"arts":3153,"atten":3154,"rele":3155,"reli":3156,"videogame":3157,"races":3158,"racket":3159,"patrick":3160,"sleev":3161,"smoke":3162,"uniforms":3163,"pushes":3164,"belt":3165,"romantic":3166,"written":3167,"success":3168,"environment":3169,"lamborgh":3170,"magazine":3171,"cro":3172,"cul":3173,"caught":3174,"eacho":3175,"flight":3176,"lu":3177,"mit":3178,"inc":3179,"beer":3180,"conne":3181,"runners":3182,"prawn":3183,"screens":3184,"scenery":3185,"picking":3186,"bring":3187,"describe":3188,"slices":3189,"microw":3190,"changes":3191,"machin":3192,"silly":3193,"blowing":3194,"depicting":3195,"surfboard":3196,"violent":3197,"kittens":3198,"entertainment":3199,"destro":3200,"bucket":3201,"gravy":3202,"leonardo":3203,"eachother":3204,"civ":3205,"fest":3206,"rod":3207,"ort":3208,"wife":3209,"lost":3210,"bollywood":3211,"moments":3212,"trip":3213,"perfect":3214,"frame":3215,"protest":3216,"smiles":3217,"crowded":3218,"served":3219,"draws":3220,"ift":3221,"turning":3222,"performed":3223,"motional":3224,"showcased":3225,"elev":3226,"installing":3227,"assembling":3228,"technique":3229,"gang":3230,"jes":3231,"lions":3232,"navig":3233,"sail":3234,"virt":3235,"ero":3236,"only":3237,"state":3238,"ado":3239,"tasting":3240,"formal":3241,"prote":3242,"competit":3243,"flowing":3244,"results":3245,"wings":3246,"candid":3247,"package":3248,"chris":3249,"golden":3250,"operating":3251,"melon":3252,"magic":3253,"explanation":3254,"countdown":3255,"gentleman":3256,"skeleton":3257,"cigaret":3258,"credits":3259,"relig":3260,"diving":3261,"mud":3262,"nie":3263,"ric":3264,"sides":3265,"ties":3266,"iner":3267,"ests":3268,"toward":3269,"revol":3270,"organ":3271,"menu":3272,"spin":3273,"ury":3274,"prison":3275,"custo":3276,"topus":3277,"planes":3278,"guitars":3279,"featured":3280,"headphones":3281,"helping":3282,"rocky":3283,"ize":3284,"chased":3285,"octopus":3286,"newscast":3287,"audition":3288,"zombies":3289,"elderly":3290,"grocery":3291,"dolph":3292,"death":3293,"nam":3294,"ari":3295,"meth":3296,"acy":3297,"grabs":3298,"lime":3299,"focus":3300,"feel":3301,"catwalk":3302,"skirt":3303,"skunk":3304,"opard":3305,"lighting":3306,"cked":3307,"ingredi":3308,"mixture":3309,"surpr":3310,"ength":3311,"boats":3312,"came":3313,"cafe":3314,"snacks":3315,"wait":3316,"structure":3317,"needed":3318,"carriage":3319,"until":3320,"fatality":3321,"lamborghini":3322,"dump":3323,"fab":3324,"floo":3325,"fell":3326,"jor":3327,"saw":3328,"tops":3329,"reg":3330,"leopard":3331,"acles":3332,"carrots":3333,"uss":3334,"spins":3335,"dev":3336,"aved":3337,"females":3338,"musician":3339,"brand":3340,"tured":3341,"crafts":3342,"options":3343,"stock":3344,"built":3345,"service":3346,"create":3347,"solve":3348,"rubik":3349,"even":3350,"dining":3351,"breaks":3352,"breakfast":3353,"zoo":3354,"exploration":3355,"fruit":3356,"bouncing":3357,"releas":3358,"virtual":3359,"dna":3360,"eled":3361,"jers":3362,"padd":3363,"sus":3364,"thre":3365,"though":3366,"isis":3367,"requ":3368,"keeping":3369,"sees":3370,"else":3371,"shut":3372,"strate":3373,"bran":3374,"such":3375,"could":3376,"reader":3377,"bottles":3378,"vessel":3379,"raps":3380,"selfies":3381,"hills":3382,"fingers":3383,"anchors":3384,"specific":3385,"photographed":3386,"indoors":3387,"attempts":3388,"stretching":3389,"university":3390,"properly":3391,"improve":3392,"pillow":3393,"dessert":3394,"aches":3395,"rat":3396,"tly":3397,"wrec":3398,"alco":3399,"hoop":3400,"lea":3401,"rober":3402,"advent":3403,"gaming":3404,"tern":3405,"express":3406,"ques":3407,"performers":3408,"backpack":3409,"puzz":3410,"fied":3411,"build":3412,"fishing":3413,"cancer":3414,"hugs":3415,"contin":3416,"puppet":3417,"bags":3418,"stirred":3419,"emplo":3420,"happ":3421,"brushes":3422,"chopped":3423,"everyone":3424,"bubbles":3425,"analy":3426,"energy":3427,"dramatic":3428,"microwave":3429,"machinery":3430,"jersey":3431,"alcoho":3432,"cree":3433,"tling":3434,"wants":3435,"wolf":3436,"remove":3437,"robo":3438,"pole":3439,"ups":3440,"clipping":3441,"audio":3442,"mony":3443,"crashing":3444,"roads":3445,"pressing":3446,"flashing":3447,"microphones":3448,"pencil":3449,"subst":3450,"exercising":3451,"athletic":3452,"lifts":3453,"killed":3454,"repairing":3455,"providing":3456,"muppet":3457,"stunts":3458,"fant":3459,"hus":3460,"nick":3461,"ugs":3462,"vac":3463,"plaid":3464,"wol":3465,"soap":3466,"comedic":3467,"ading":3468,"boil":3469,"second":3470,"bly":3471,"network":3472,"gol":3473,"goo":3474,"ulars":3475,"string":3476,"recent":3477,"recorded":3478,"classic":3479,"spot":3480,"painted":3481,"bathing":3482,"carefully":3483,"effects":3484,"following":3485,"vention":3486,"blood":3487,"shoulder":3488,"witch":3489,"storm":3490,"weapons":3491,"married":3492,"platform":3493,"robots":3494,"econ":3495,"last":3496,"oly":3497,"raw":3498,"thick":3499,"alo":3500,"alone":3501,"lob":3502,"loves":3503,"single":3504,"kson":3505,"eak":3506,"shadow":3507,"whip":3508,"crack":3509,"sliced":3510,"broken":3511,"crew":3512,"steel":3513,"boards":3514,"berg":3515,"chops":3516,"subject":3517,"addic":3518,"sleep":3519,"containing":3520,"spectator":3521,"circles":3522,"lined":3523,"shakes":3524,"educational":3525,"search":3526,"rubbing":3527,"victori":3528,"happening":3529,"decorating":3530,"punching":3531,"collection":3532,"eyeliner":3533,"crossing":3534,"cigarette":3535,"bage":3536,"ctions":3537,"gta":3538,"jour":3539,"ka":3540,"mr":3541,"mad":3542,"trol":3543,"wide":3544,"info":3545,"inner":3546,"issor":3547,"ental":3548,"wok":3549,"forward":3550,"aprio":3551,"ries":3552,"tors":3553,"discusing":3554,"pical":3555,"illustr":3556,"istic":3557,"serves":3558,"apples":3559,"evil":3560,"sung":3561,"corn":3562,"respon":3563,"sym":3564,"ancient":3565,"chases":3566,"farm":3567,"doctors":3568,"leading":3569,"leaders":3570,"materials":3571,"campa":3572,"shapes":3573,"yoga":3574,"participating":3575,"humorous":3576,"rubix":3577,"dicaprio":3578,"elevator":3579,"dd":3580,"hiding":3581,"ired":3582,"say":3583,"tell":3584,"ales":3585,"removes":3586,"spring":3587,"blan":3588,"likes":3589,"deal":3590,"monsters":3591,"cry":3592,"noises":3593,"gger":3594,"battling":3595,"photoshop":3596,"cookies":3597,"fastly":3598,"celebrate":3599,"celebrates":3600,"walls":3601,"butt":3602,"pensive":3603,"cakes":3604,"cups":3605,"effect":3606,"binoc":3607,"titles":3608,"finishing":3609,"complex":3610,"bubble":3611,"exploring":3612,"mechanic":3613,"rabbit":3614,"shouting":3615,"fabric":3616,"campaign":3617,"sen":3618,"sink":3619,"save":3620,"tt":3621,"yells":3622,"ision":3623,"theme":3624,"champ":3625,"ors":3626,"cold":3627,"beating":3628,"personal":3629,"mot":3630,"separ":3631,"scrolling":3632,"scissor":3633,"guard":3634,"comic":3635,"viewer":3636,"phy":3637,"lowing":3638,"watermelon":3639,"bug":3640,"bugs":3641,"udd":3642,"sunset":3643,"curly":3644,"sales":3645,"ania":3646,"automobile":3647,"cellphone":3648,"britney":3649,"activity":3650,"pigs":3651,"thinking":3652,"bunny":3653,"treatment":3654,"competitive":3655,"substance":3656,"cular":3657,"jam":3658,"jones":3659,"rally":3660,"sum":3661,"saving":3662,"vit":3663,"wel":3664,"third":3665,"ered":3666,"eno":3667,"itions":3668,"adi":3669,"bei":3670,"beans":3671,"boiled":3672,"termin":3673,"amoun":3674,"post":3675,"poster":3676,"exter":3677,"heat":3678,"heated":3679,"austr":3680,"strugg":3681,"crush":3682,"bride":3683,"quality":3684,"suv":3685,"ouses":3686,"illa":3687,"rubs":3688,"itional":3689,"barack":3690,"profess":3691,"burgers":3692,"feeds":3693,"topics":3694,"message":3695,"carries":3696,"refere":3697,"awards":3698,"techniques":3699,"complain":3700,"position":3701,"bomb":3702,"ufc":3703,"situation":3704,"hilary":3705,"sandwich":3706,"puzzle":3707,"binoculars":3708,"aim":3709,"bits":3710,"ci":3711,"due":3712,"ek":3713,"nal":3714,"sque":3715,"aning":3716,"album":3717,"encour":3718,"plates":3719,"lotion":3720,"selec":3721,"blaz":3722,"upset":3723,"expensive":3724,"danger":3725,"avo":3726,"smi":3727,"chemic":3728,"cries":3729,"doors":3730,"etc":3731,"hug":3732,"worker":3733,"obst":3734,"birth":3735,"study":3736,"achu":3737,"justin":3738,"brushing":3739,"passes":3740,"numbers":3741,"bathtub":3742,"lamb":3743,"title":3744,"violin":3745,"dummy":3746,"furn":3747,"enemy":3748,"incredi":3749,"austral":3750,"referee":3751,"10":3752,"dden":3753,"nba":3754,"pipe":3755,"packing":3756,"sme":3757,"ually":3758,"xbox":3759,"rean":3760,"replay":3761,"acle":3762,"access":3763,"wire":3764,"mental":3765,"advice":3766,"terri":3767,"drawn":3768,"blouse":3769,"impress":3770,"shelf":3771,"younger":3772,"velo":3773,"interact":3774,"progress":3775,"noise":3776,"brad":3777,"starring":3778,"joke":3779,"applic":3780,"version":3781,"winner":3782,"pull":3783,"doesn":3784,"resort":3785,"morning":3786,"chase":3787,"passion":3788,"swings":3789,"location":3790,"wonder":3791,"seasoning":3792,"member":3793,"entertaining":3794,"muppets":3795,"weapon":3796,"engaged":3797,"escape":3798,"politician":3799,"santa":3800,"pretending":3801,"historical":3802,"radio":3803,"threat":3804,"spectators":3805,"dj":3806,"glitter":3807,"kite":3808,"lac":3809,"tires":3810,"wwe":3811,"rose":3812,"ora":3813,"womans":3814,"cos":3815,"mens":3816,"adv":3817,"spat":3818,"keep":3819,"sell":3820,"trou":3821,"polo":3822,"extre":3823,"conce":3824,"custom":3825,"sudden":3826,"smile":3827,"crime":3828,"matter":3829,"rider":3830,"countries":3831,"india":3832,"ifting":3833,"jackson":3834,"facing":3835,"resear":3836,"graphs":3837,"relax":3838,"simple":3839,"flipping":3840,"touches":3841,"windows":3842,"passeng":3843,"humans":3844,"leader":3845,"bane":3846,"figur":3847,"bull":3848,"breast":3849,"split":3850,"generated":3851,"conducting":3852,"cabine":3853,"shaped":3854,"chatting":3855,"easy":3856,"crawling":3857,"sketch":3858,"festival":3859,"customer":3860,"robert":3861,"employe":3862,"trolley":3863,"squee":3864,"aero":3865,"cel":3866,"date":3867,"gi":3868,"hou":3869,"ilet":3870,"kim":3871,"lie":3872,"mpic":3873,"sin":3874,"wid":3875,"alph":3876,"reel":3877,"chin":3878,"idious":3879,"cards":3880,"whales":3881,"bears":3882,"drunk":3883,"ambul":3884,"gown":3885,"deta":3886,"confron":3887,"download":3888,"shirtless":3889,"rooms":3890,"visual":3891,"ipping":3892,"joy":3893,"created":3894,"swims":3895,"helps":3896,"counting":3897,"artic":3898,"curry":3899,"silent":3900,"engineering":3901,"career":3902,"burning":3903,"designs":3904,"gathering":3905,"blows":3906,"screams":3907,"papers":3908,"storage":3909,"explaning":3910,"korean":3911,"gordon":3912,"wolves":3913,"econom":3914,"olympic":3915,"champion":3916,"professor":3917,"smell":3918,"ambulance":3919,"200":3920,"length":3921,"mill":3922,"rh":3923,"ustri":3924,"chest":3925,"china":3926,"stic":3927,"robin":3928,"aces":3929,"edward":3930,"illy":3931,"sewing":3932,"trap":3933,"shania":3934,"master":3935,"airport":3936,"feud":3937,"conso":3938,"strong":3939,"performer":3940,"handle":3941,"fighter":3942,"demonstrated":3943,"industri":3944,"jets":3945,"cub":3946,"record":3947,"commentates":3948,"fires":3949,"flows":3950,"turtle":3951,"insidious":3952,"twain":3953,"simps":3954,"soft":3955,"exciting":3956,"pitcher":3957,"otic":3958,"receiving":3959,"hurt":3960,"learn":3961,"sprink":3962,"attacked":3963,"european":3964,"stache":3965,"opinion":3966,"communic":3967,"umbrella":3968,"strategy":3969,"alcohol":3970,"spatula":3971,"bac":3972,"lish":3973,"mac":3974,"nights":3975,"winter":3976,"yon":3977,"iss":3978,"alk":3979,"told":3980,"toilet":3981,"ply":3982,"idents":3983,"orig":3984,"eover":3985,"eds":3986,"shower":3987,"geor":3988,"whale":3989,"addressing":3990,"drugs":3991,"seats":3992,"aming":3993,"easter":3994,"posed":3995,"weights":3996,"develo":3997,"tah":3998,"formula":3999,"paris":4000,"diffic":4001,"pant":4002,"aws":4003,"smaller":4004,"ipes":4005,"stops":4006,"broth":4007,"surger":4008,"mart":4009,"marching":4010,"applau":4011,"squir":4012,"berry":4013,"curity":4014,"burger":4015,"queen":4016,"contains":4017,"noodle":4018,"must":4019,"ginger":4020,"surrounding":4021,"answer":4022,"medicine":4023,"rushing":4024,"attached":4025,"politicians":4026,"auditori":4027,"teeth":4028,"nurse":4029,"shuttle":4030,"branch":4031,"incredible":4032,"research":4033,"surgery":4034,"bake":4035,"cen":4036,"lon":4037,"pred":4038,"pend":4039,"ws":4040,"zi":4041,"ories":4042,"abbing":4043,"asked":4044,"bell":4045,"beef":4046,"loween":4047,"ield":4048,"terrain":4049,"blin":4050,"trad":4051,"impor":4052,"ura":4053,"upon":4054,"max":4055,"wet":4056,"gover":4057,"avail":4058,"fridge":4059,"convention":4060,"crab":4061,"backwards":4062,"pud":4063,"awk":4064,"glue":4065,"demonstrate":4066,"voic":4067,"mark":4068,"marin":4069,"fallon":4070,"steve":4071,"motorcycl":4072,"workout":4073,"ballo":4074,"ballet":4075,"heroes":4076,"africa":4077,"spraying":4078,"provides":4079,"kinds":4080,"cheetah":4081,"doubles":4082,"prawns":4083,"bringing":4084,"ingredient":4085,"paddle":4086,"victoria":4087,"smith":4088,"furnit":4089,"george":4090,"auditorium":4091,"importance":4092,"cent":4093,"jail":4094,"mash":4095,"nest":4096,"names":4097,"russ":4098,"wires":4099,"ante":4100,"eral":4101,"erie":4102,"almost":4103,"alpac":4104,"anda":4105,"repe":4106,"memor":4107,"chalk":4108,"leave":4109,"roast":4110,"ask":4111,"geon":4112,"ilities":4113,"below":4114,"spa":4115,"security":4116,"ential":4117,"exten":4118,"extra":4119,"scenic":4120,"ously":4121,"merma":4122,"arry":4123,"surfer":4124,"headed":4125,"teddy":4126,"cuit":4127,"wooded":4128,"racers":4129,"support":4130,"hosts":4131,"underwear":4132,"lands":4133,"rapper":4134,"castle":4135,"embr":4136,"desktop":4137,"murder":4138,"miss":4139,"begin":4140,"halloween":4141,"sweet":4142,"labora":4143,"officers":4144,"england":4145,"pumpkin":4146,"straight":4147,"civic":4148,"candidate":4149,"improvement":4150,"happily":4151,"voiceover":4152,"ato":4153,"bled":4154,"fail":4155,"groom":4156,"jr":4157,"later":4158,"nt":4159,"vines":4160,"manner":4161,"enge":4162,"tooth":4163,"todd":4164,"rear":4165,"acura":4166,"wig":4167,"cop":4168,"cot":4169,"cock":4170,"local":4171,"force":4172,"sey":4173,"digging":4174,"uristic":4175,"neigh":4176,"shark":4177,"shiny":4178,"veg":4179,"straw":4180,"protesting":4181,"brick":4182,"parade":4183,"larger":4184,"malefic":4185,"ducks":4186,"stares":4187,"ledge":4188,"flame":4189,"racetrack":4190,"micros":4191,"fries":4192,"helme":4193,"beautifully":4194,"preforming":4195,"production":4196,"techn":4197,"instructor":4198,"cali":4199,"again":4200,"downey":4201,"lawn":4202,"designed":4203,"dirty":4204,"electronics":4205,"streaming":4206,"explosion":4207,"towel":4208,"healthy":4209,"futuristic":4210,"commentators":4211,"universe":4212,"approaches":4213,"gestures":4214,"blindfolded":4215,"challenge":4216,"ceremony":4217,"six":4218,"jesus":4219,"protect":4220,"religious":4221,"husband":4222,"scissors":4223,"exterior":4224,"blazer":4225,"suddenly":4226,"laboratory":4227,"maleficent":4228,"james":4229,"kar":4230,"ng":4231,"nap":4232,"ox":4233,"pap":4234,"zer":4235,"ano":4236,"anti":4237,"chips":4238,"leaf":4239,"accompan":4240,"illing":4241,"ads":4242,"bodies":4243,"forni":4244,"dod":4245,"drib":4246,"grat":4247,"exotic":4248,"ested":4249,"former":4250,"promotional":4251,"olive":4252,"bras":4253,"wrap":4254,"backyard":4255,"tening":4256,"skate":4257,"file":4258,"tial":4259,"whole":4260,"arrang":4261,"trek":4262,"said":4263,"classical":4264,"curved":4265,"facts":4266,"turtles":4267,"youth":4268,"experiences":4269,"finds":4270,"slee":4271,"strip":4272,"candle":4273,"sweat":4274,"hurdles":4275,"pik":4276,"dinosaurs":4277,"valley":4278,"relationship":4279,"north":4280,"individuals":4281,"collecting":4282,"pective":4283,"dolphin":4284,"method":4285,"golfer":4286,"concept":4287,"passenger":4288,"furniture":4289,"neighbor":4290,"fornia":4291,"akes":4292,"bay":4293,"backs":4294,"frea":4295,"kre":4296,"rate":4297,"sent":4298,"ined":4299,"isle":4300,"arti":4301,"playground":4302,"wii":4303,"ase":4304,"ases":4305,"coast":4306,"beast":4307,"lock":4308,"scram":4309,"screw":4310,"apo":4311,"shield":4312,"gular":4313,"comfor":4314,"peeling":4315,"lingerie":4316,"runner":4317,"pra":4318,"note":4319,"offers":4320,"handling":4321,"riders":4322,"buy":4323,"skill":4324,"industr":4325,"started":4326,"grapher":4327,"gameshow":4328,"trains":4329,"appearing":4330,"subtitles":4331,"laid":4332,"farmer":4333,"banana":4334,"pitt":4335,"churros":4336,"answers":4337,"palm":4338,"dunking":4339,"reflec":4340,"bloopers":4341,"physical":4342,"muddy":4343,"lobster":4344,"passionately":4345,"extreme":4346,"squirrel":4347,"california":4348,"gratul":4349,"pikachu":4350,"kreu":4351,"industry":4352,"11":4353,"evid":4354,"ears":4355,"fel":4356,"gn":4357,"houses":4358,"ier":4359,"nfl":4360,"rough":4361,"size":4362,"uto":4363,"wan":4364,"zed":4365,"think":4366,"manuf":4367,"remo":4368,"chip":4369,"lets":4370,"leaving":4371,"outs":4372,"admir":4373,"spark":4374,"shaving":4375,"ention":4376,"rihan":4377,"deer":4378,"mush":4379,"womens":4380,"congratul":4381,"vey":4382,"repu":4383,"llama":4384,"checks":4385,"bowling":4386,"closing":4387,"filling":4388,"deliver":4389,"gged":4390,"joking":4391,"stomach":4392,"rosse":4393,"cano":4394,"programme":4395,"narration":4396,"curtain":4397,"correc":4398,"reaches":4399,"puppets":4400,"lane":4401,"caster":4402,"izes":4403,"syri":4404,"introduced":4405,"sonic":4406,"involved":4407,"official":4408,"directions":4409,"titan":4410,"duce":4411,"pile":4412,"rubber":4413,"quarter":4414,"calling":4415,"fruits":4416,"mechanical":4417,"punches":4418,"promoting":4419,"tomatoes":4420,"warehouse":4421,"adjusting":4422,"seriously":4423,"culture":4424,"addiction":4425,"amount":4426,"lacrosse":4427,"origin":4428,"difficult":4429,"manufact":4430,"ause":4431,"aerial":4432,"eum":4433,"gate":4434,"hab":4435,"mut":4436,"nine":4437,"paw":4438,"tam":4439,"tying":4440,"went":4441,"thus":4442,"isto":4443,"isting":4444,"themed":4445,"hoo":4446,"areas":4447,"editing":4448,"coins":4449,"loki":4450,"gra":4451,"dile":4452,"shades":4453,"ceiling":4454,"pots":4455,"deck":4456,"peace":4457,"airplanes":4458,"ull":4459,"museum":4460,"newsp":4461,"shoe":4462,"loose":4463,"panning":4464,"tug":4465,"rectan":4466,"skis":4467,"plans":4468,"vocal":4469,"lighted":4470,"flashes":4471,"functions":4472,"animations":4473,"choir":4474,"instructing":4475,"ators":4476,"warri":4477,"final":4478,"izing":4479,"ferr":4480,"morgan":4481,"unique":4482,"occur":4483,"chopsticks":4484,"depicted":4485,"scientific":4486,"dub":4487,"transm":4488,"tune":4489,"trophy":4490,"ramsey":4491,"fuel":4492,"double":4493,"marriage":4494,"galax":4495,"adventure":4496,"journal":4497,"buttons":4498,"application":4499,"alphab":4500,"london":4501,"100":4502,"aing":4503,"cting":4504,"dut":4505,"ever":4506,"honey":4507,"kat":4508,"kers":4509,"lli":4510,"lav":4511,"lush":4512,"rhy":4513,"sni":4514,"tent":4515,"ww":4516,"inis":4517,"ination":4518,"ala":4519,"allow":4520,"mex":4521,"meter":4522,"iti":4523,"robe":4524,"icul":4525,"codile":4526,"ilar":4527,"fork":4528,"drying":4529,"drama":4530,"mojo":4531,"tru":4532,"dip":4533,"share":4534,"utes":4535,"viewing":4536,"torn":4537,"umber":4538,"hear":4539,"smashing":4540,"tents":4541,"fighters":4542,"mates":4543,"moved":4544,"buff":4545,"cted":4546,"surv":4547,"martial":4548,"judged":4549,"captured":4550,"machines":4551,"better":4552,"days":4553,"ponies":4554,"goals":4555,"similar":4556,"ancing":4557,"bloom":4558,"packaging":4559,"mission":4560,"mustache":4561,"leads":4562,"lincol":4563,"skier":4564,"argue":4565,"battery":4566,"philip":4567,"growing":4568,"years":4569,"keeps":4570,"crocodile":4571,"lux":4572,"uddling":4573,"console":4574,"issue":4575,"available":4576,"atoms":4577,"helmets":4578,"technical":4579,"cd":4580,"foul":4581,"jol":4582,"knight":4583,"range":4584,"sick":4585,"sions":4586,"vation":4587,"washes":4588,"ank":4589,"anno":4590,"ona":4591,"alley":4592,"plot":4593,"attire":4594,"mean":4595,"stunt":4596,"acing":4597,"within":4598,"becomes":4599,"foam":4600,"pops":4601,"compar":4602,"waters":4603,"aircraft":4604,"umin":4605,"hearing":4606,"print":4607,"difference":4608,"buying":4609,"sheets":4610,"coloring":4611,"crowds":4612,"ella":4613,"jogging":4614,"jogger":4615,"facebook":4616,"televised":4617,"jackets":4618,"minion":4619,"warm":4620,"drawings":4621,"calm":4622,"finding":4623,"showcase":4624,"rotating":4625,"sandy":4626,"pointed":4627,"scott":4628,"needs":4629,"settings":4630,"finished":4631,"transl":4632,"tropical":4633,"cnbc":4634,"elephants":4635,"superheroes":4636,"terrorist":4637,"zombie":4638,"flex":4639,"fairy":4640,"cereal":4641,"taping":4642,"feelings":4643,"wrecking":4644,"blanket":4645,"terminator":4646,"industrial":4647,"simpsons":4648,"antelope":4649,"evidence":4650,"rihanna":4651,"newspaper":4652,"bri":4653,"bars":4654,"crown":4655,"fed":4656,"hour":4657,"hump":4658,"mind":4659,"nif":4660,"nbc":4661,"pines":4662,"pisto":4663,"rivers":4664,"sche":4665,"soul":4666,"tape":4667,"wand":4668,"infant":4669,"thum":4670,"isher":4671,"ission":4672,"ares":4673,"itun":4674,"steak":4675,"rome":4676,"romance":4677,"abc":4678,"ford":4679,"drivers":4680,"drug":4681,"girlfriend":4682,"urban":4683,"shine":4684,"baller":4685,"expressing":4686,"boyfriend":4687,"tasty":4688,"matic":4689,"vision":4690,"presents":4691,"ggie":4692,"stool":4693,"flavor":4694,"telephone":4695,"creation":4696,"stew":4697,"frigh":4698,"applied":4699,"walkthrough":4700,"funeral":4701,"swimmers":4702,"advertised":4703,"nerv":4704,"pulled":4705,"minister":4706,"minnie":4707,"styling":4708,"expert":4709,"myster":4710,"rolled":4711,"experiments":4712,"attention":4713,"relay":4714,"practices":4715,"cloths":4716,"sale":4717,"travels":4718,"lists":4719,"meals":4720,"compared":4721,"designer":4722,"gymnastic":4723,"turned":4724,"climb":4725,"circuit":4726,"licking":4727,"took":4728,"processor":4729,"receives":4730,"finishes":4731,"terrorism":4732,"norton":4733,"approach":4734,"dropping":4735,"condition":4736,"lecturing":4737,"haun":4738,"sharp":4739,"possible":4740,"opinions":4741,"challeng":4742,"measuring":4743,"required":4744,"vacation":4745,"cosmet":4746,"figurines":4747,"detailed":4748,"govern":4749,"awkward":4750,"titanic":4751,"quarterback":4752,"itunes":4753,"ahead":4754,"kins":4755,"kills":4756,"lace":4757,"law":4758,"pill":4759,"saf":4760,"vil":4761,"inse":4762,"erness":4763,"ond":4764,"onstage":4765,"esome":4766,"chi":4767,"willi":4768,"solo":4769,"asium":4770,"carpen":4771,"usage":4772,"seven":4773,"amas":4774,"amate":4775,"dif":4776,"imp":4777,"east":4778,"posite":4779,"excer":4780,"uten":4781,"def":4782,"muscle":4783,"newborn":4784,"veget":4785,"chili":4786,"brings":4787,"thru":4788,"awesome":4789,"psy":4790,"bud":4791,"opposite":4792,"typing":4793,"starch":4794,"presenter":4795,"applause":4796,"famil":4797,"cubes":4798,"canyon":4799,"messing":4800,"germany":4801,"suppor":4802,"celebration":4803,"instructs":4804,"notes":4805,"subway":4806,"coats":4807,"finally":4808,"heroin":4809,"baked":4810,"listing":4811,"lakes":4812,"strike":4813,"raining":4814,"biker":4815,"packed":4816,"follows":4817,"vedio":4818,"temper":4819,"tourist":4820,"staircase":4821,"direction":4822,"opera":4823,"wilderness":4824,"hurdle":4825,"listed":4826,"opponents":4827,"happened":4828,"decorated":4829,"loading":4830,"bounces":4831,"prime":4832,"tackled":4833,"tribut":4834,"spectacles":4835,"surprised":4836,"crackers":4837,"wonderful":4838,"relaxing":4839,"traditional":4840,"toddler":4841,"amateur":4842,"80":4843,"aching":4844,"cin":4845,"cuc":4846,"cuddling":4847,"emer":4848,"hindi":4849,"lives":4850,"mice":4851,"nu":4852,"ril":4853,"rup":4854,"sw":4855,"sna":4856,"vin":4857,"inhome":4858,"invest":4859,"enthus":4860,"today":4861,"reo":4862,"reactions":4863,"iring":4864,"ability":4865,"soda":4866,"advan":4867,"dom":4868,"drifting":4869,"ghet":4870,"eless":4871,"blast":4872,"blican":4873,"scale":4874,"herbs":4875,"extract":4876,"rib":4877,"webc":4878,"ules":4879,"feeling":4880,"conver":4881,"international":4882,"pros":4883,"proced":4884,"baskets":4885,"quite":4886,"colon":4887,"matt":4888,"gladi":4889,"iously":4890,"closes":4891,"society":4892,"vote":4893,"visible":4894,"steering":4895,"narrated":4896,"adele":4897,"faster":4898,"contact":4899,"choice":4900,"choreo":4901,"paints":4902,"enjoys":4903,"donkey":4904,"donuts":4905,"patch":4906,"electrical":4907,"gymnasium":4908,"smooth":4909,"listens":4910,"raising":4911,"receipe":4912,"butterfly":4913,"sprin":4914,"attempt":4915,"happens":4916,"belie":4917,"dropped":4918,"hunger":4919,"cheek":4920,"tackle":4921,"whiskey":4922,"historic":4923,"dashboard":4924,"incident":4925,"jordan":4926,"google":4927,"complaining":4928,"employee":4929,"aeroplane":4930,"predic":4931,"artific":4932,"kreuger":4933,"republican":4934,"transmission":4935,"galaxy":4936,"sniff":4937,"bloomberg":4938,"lincoln":4939,"nervous":4940,"haunted":4941,"government":4942,"williams":4943,"families":4944,"enthusi":4945,"webcam":4946,"cling":4947,"cable":4948,"epic":4949,"glowing":4950,"jay":4951,"pun":4952,"packs":4953,"swit":4954,"slope":4955,"tin":4956,"vint":4957,"vlog":4958,"yed":4959,"zone":4960,"islam":4961,"arian":4962,"reaction":4963,"chica":4964,"itself":4965,"ston":4966,"leap":4967,"soa":4968,"cope":4969,"carry":4970,"someones":4971,"perspective":4972,"spaces":4973,"motions":4974,"grin":4975,"scul":4976,"tron":4977,"died":4978,"diam":4979,"shel":4980,"shred":4981,"cement":4982,"upbeat":4983,"major":4984,"comman":4985,"comical":4986,"combing":4987,"combin":4988,"ideas":4989,"detail":4990,"pects":4991,"chart":4992,"cooler":4993,"heating":4994,"congress":4995,"contents":4996,"interacts":4997,"strain":4998,"chilli":4999,"brief":5000,"llamas":5001,"suite":5002,"panor":5003,"claps":5004,"matters":5005,"istics":5006,"photographer":5007,"sliding":5008,"cookery":5009,"steam":5010,"walked":5011,"selling":5012,"opened":5013,"prey":5014,"rings":5015,"content":5016,"angelin":5017,"appeared":5018,"reaching":5019,"casting":5020,"early":5021,"wheeled":5022,"missing":5023,"accidents":5024,"climate":5025,"pressure":5026,"partici":5027,"violence":5028,"complete":5029,"miniature":5030,"sync":5031,"umbrellas":5032,"newscasters":5033,"dangerous":5034,"obstacle":5035,"kimmel":5036,"rhino":5037,"repeated":5038,"spaghet":5039,"remote":5040,"syria":5041,"manufacturing":5042,"alphabet":5043,"philippines":5044,"scottish":5045,"humpty":5046,"vintage":5047,"chicago":5048,"sculp":5049,"angelina":5050,"spaghetti":5051,"bone":5052,"bush":5053,"cine":5054,"cue":5055,"cages":5056,"dail":5057,"fisher":5058,"geo":5059,"gift":5060,"haw":5061,"hunt":5062,"lers":5063,"link":5064,"mou":5065,"nano":5066,"oo":5067,"pn":5068,"paved":5069,"ress":5070,"rises":5071,"sar":5072,"session":5073,"vir":5074,"anger":5075,"ony":5076,"alities":5077,"holes":5078,"stal":5079,"stro":5080,"roo":5081,"ory":5082,"coin":5083,"coaster":5084,"somewhere":5085,"gave":5086,"beam":5087,"beats":5088,"usa":5089,"spreading":5090,"doh":5091,"teria":5092,"drone":5093,"moment":5094,"grabbing":5095,"tractor":5096,"trunk":5097,"imag":5098,"neat":5099,"poll":5100,"posters":5101,"ently":5102,"week":5103,"dant":5104,"sitcom":5105,"cooling":5106,"concre":5107,"ffle":5108,"basil":5109,"bru":5110,"brake":5111,"wrapping":5112,"tened":5113,"clap":5114,"odd":5115,"migr":5116,"buzz":5117,"skull":5118,"antly":5119,"flames":5120,"jewish":5121,"fallen":5122,"setup":5123,"seem":5124,"tanks":5125,"trainer":5126,"skyline":5127,"ization":5128,"angrily":5129,"whether":5130,"speeding":5131,"bikinis":5132,"comparing":5133,"competi":5134,"misses":5135,"knocked":5136,"halo":5137,"sedan":5138,"pushed":5139,"tourists":5140,"hangs":5141,"directly":5142,"operation":5143,"includes":5144,"dust":5145,"collared":5146,"transport":5147,"messages":5148,"hoodie":5149,"exploding":5150,"thanks":5151,"excitedly":5152,"calls":5153,"dumpl":5154,"stretches":5155,"hanks":5156,"hunting":5157,"dryer":5158,"revealing":5159,"rodent":5160,"released":5161,"motive":5162,"trouble":5163,"championship":5164,"alpacas":5165,"challenging":5166,"procedure":5167,"choreograph":5168,"artificial":5169,"daily":5170,"concrete":5171,"bare":5172,"cco":5173,"cash":5174,"iga":5175,"nut":5176,"pay":5177,"panda":5178,"smel":5179,"vod":5180,"zilla":5181,"inte":5182,"espn":5183,"stan":5184,"leaning":5185,"som":5186,"asy":5187,"usual":5188,"iel":5189,"boss":5190,"unboxing":5191,"unison":5192,"apes":5193,"trian":5194,"upper":5195,"avril":5196,"perfo":5197,"fear":5198,"conan":5199,"repres":5200,"proje":5201,"priv":5202,"haircut":5203,"files":5204,"guitarist":5205,"floats":5206,"flakes":5207,"brother":5208,"volle":5209,"capt":5210,"homemade":5211,"angel":5212,"reach":5213,"portion":5214,"landing":5215,"stylish":5216,"factor":5217,"rapid":5218,"introduce":5219,"causes":5220,"sexual":5221,"stripes":5222,"freddie":5223,"scorp":5224,"seduc":5225,"cows":5226,"otes":5227,"arrows":5228,"hike":5229,"argument":5230,"meets":5231,"surfs":5232,"messy":5233,"explodes":5234,"injury":5235,"slams":5236,"fiction":5237,"native":5238,"general":5239,"witness":5240,"conducted":5241,"harvey":5242,"brightly":5243,"smartphone":5244,"pickup":5245,"confused":5246,"nicely":5247,"godzilla":5248,"tattoos":5249,"destroying":5250,"revolution":5251,"dumpty":5252,"analyst":5253,"chemical":5254,"australian":5255,"customers":5256,"widow":5257,"article":5258,"russian":5259,"neighborhood":5260,"ferrari":5261,"lava":5262,"luxury":5263,"pistol":5264,"snakes":5265,"aj":5266,"bil":5267,"dying":5268,"dream":5269,"divers":5270,"emotion":5271,"eleg":5272,"emotional":5273,"jon":5274,"junk":5275,"kn":5276,"prec":5277,"rise":5278,"sister":5279,"wound":5280,"zes":5281,"inno":5282,"ancial":5283,"revers":5284,"reilly":5285,"leans":5286,"accompl":5287,"icans":5288,"aspects":5289,"lov":5290,"mood":5291,"grip":5292,"unusual":5293,"scrolls":5294,"trim":5295,"trash":5296,"never":5297,"shift":5298,"ains":5299,"avat":5300,"feels":5301,"tages":5302,"explaing":5303,"crim":5304,"pression":5305,"worm":5306,"designing":5307,"brace":5308,"wraps":5309,"sumo":5310,"backup":5311,"panic":5312,"smash":5313,"smashes":5314,"click":5315,"crib":5316,"colum":5317,"tip":5318,"starfish":5319,"visiting":5320,"ellite":5321,"jockey":5322,"beds":5323,"builds":5324,"racecar":5325,"fields":5326,"reviewed":5327,"marvel":5328,"headset":5329,"rubio":5330,"artists":5331,"judging":5332,"naked":5333,"saute":5334,"homeless":5335,"choices":5336,"channels":5337,"causing":5338,"financial":5339,"ferret":5340,"snap":5341,"waits":5342,"bikers":5343,"informational":5344,"movements":5345,"mug":5346,"lifted":5347,"afraid":5348,"alibab":5349,"collage":5350,"everything":5351,"carried":5352,"splashing":5353,"examining":5354,"cabbage":5355,"loudly":5356,"freeman":5357,"growth":5358,"ugly":5359,"coversation":5360,"crawls":5361,"electricity":5362,"damon":5363,"bolt":5364,"zooms":5365,"spinach":5366,"creepy":5367,"beige":5368,"aiming":5369,"confronting":5370,"economy":5371,"develop":5372,"mermaid":5373,"accompanied":5374,"sweatshirt":5375,"jolie":5376,"diffr":5377,"vodka":5378,"accomplish":5379,"60":5380,"bm":5381,"bound":5382,"chor":5383,"cade":5384,"cbs":5385,"dashing":5386,"egy":5387,"fal":5388,"fuse":5389,"ibly":5390,"jen":5391,"neath":5392,"pea":5393,"ris":5394,"rit":5395,"rican":5396,"render":5397,"slo":5398,"tight":5399,"vio":5400,"via":5401,"armed":5402,"theat":5403,"already":5404,"enced":5405,"plies":5406,"pluto":5407,"mega":5408,"chief":5409,"iders":5410,"idence":5411,"lee":5412,"abilities":5413,"ada":5414,"gaga":5415,"tered":5416,"mod":5417,"mold":5418,"seth":5419,"semi":5420,"ived":5421,"ung":5422,"blending":5423,"eagle":5424,"diseas":5425,"pope":5426,"pointer":5427,"pocket":5428,"gum":5429,"guests":5430,"maggie":5431,"goat":5432,"goof":5433,"perry":5434,"muscular":5435,"confront":5436,"mono":5437,"ffy":5438,"nown":5439,"pharm":5440,"aft":5441,"wrong":5442,"backstage":5443,"cameras":5444,"handles":5445,"busters":5446,"greens":5447,"cleans":5448,"intim":5449,"join":5450,"flute":5451,"creates":5452,"steep":5453,"browns":5454,"swimsuit":5455,"pregn":5456,"recorder":5457,"capture":5458,"fashionable":5459,"ifts":5460,"underneath":5461,"cursive":5462,"porsche":5463,"minaj":5464,"spoof":5465,"resting":5466,"practising":5467,"snack":5468,"snail":5469,"patrol":5470,"lapse":5471,"ryding":5472,"unknown":5473,"automotive":5474,"burst":5475,"containers":5476,"muff":5477,"knock":5478,"bank":5479,"hardwood":5480,"scored":5481,"earthqu":5482,"announces":5483,"dungeon":5484,"junior":5485,"scooping":5486,"teenager":5487,"frustr":5488,"korea":5489,"writes":5490,"satellite":5491,"zebra":5492,"washed":5493,"situations":5494,"shares":5495,"critic":5496,"sleeved":5497,"protesters":5498,"thoughts":5499,"duet":5500,"cabinets":5501,"chinchil":5502,"bacon":5503,"chalkboard":5504,"karate":5505,"journalist":5506,"diamond":5507,"repeatedly":5508,"private":5509,"volleying":5510,"egypt":5511,"violet":5512,"90":5513,"agr":5514,"bang":5515,"dent":5516,"dives":5517,"eing":5518,"ecut":5519,"fon":5520,"gad":5521,"gmc":5522,"ito":5523,"ither":5524,"leno":5525,"nes":5526,"nip":5527,"ok":5528,"twe":5529,"those":5530,"armor":5531,"thetic":5532,"ening":5533,"attr":5534,"oft":5535,"reco":5536,"rets":5537,"stats":5538,"abra":5539,"soil":5540,"coke":5541,"cara":5542,"illed":5543,"thermo":5544,"spi":5545,"spar":5546,"spit":5547,"dots":5548,"section":5549,"scroll":5550,"uries":5551,"disaster":5552,"mathe":5553,"expect":5554,"ried":5555,"peter":5556,"viewed":5557,"ultron":5558,"muslim":5559,"fet":5560,"aust":5561,"stry":5562,"cran":5563,"price":5564,"assist":5565,"americans":5566,"qualities":5567,"sure":5568,"backflips":5569,"pub":5570,"tender":5571,"chemis":5572,"itsy":5573,"watched":5574,"fif":5575,"tile":5576,"delivers":5577,"photoes":5578,"higher":5579,"highlighted":5580,"cooker":5581,"broke":5582,"mary":5583,"marco":5584,"potential":5585,"boarding":5586,"sauc":5587,"conversing":5588,"sunscreen":5589,"barking":5590,"boots":5591,"coverage":5592,"spoons":5593,"lettering":5594,"looked":5595,"twirl":5596,"anced":5597,"powers":5598,"wakes":5599,"autographs":5600,"missed":5601,"ladder":5602,"border":5603,"species":5604,"circular":5605,"pitch":5606,"drummer":5607,"hurrican":5608,"pastry":5609,"scientists":5610,"butterflies":5611,"peppers":5612,"pix":5613,"repairs":5614,"blooper":5615,"fingernails":5616,"latin":5617,"stretch":5618,"crashed":5619,"packet":5620,"positive":5621,"greece":5622,"knees":5623,"massive":5624,"engaging":5625,"analys":5626,"possibly":5627,"teaser":5628,"connected":5629,"civil":5630,"evening":5631,"creek":5632,"separate":5633,"jetsons":5634,"centr":5635,"protective":5636,"habit":5637,"tornado":5638,"survival":5639,"ballerina":5640,"carpenter":5641,"temperature":5642,"cucumber":5643,"colonial":5644,"enthusiastic":5645,"spaceship":5646,"participants":5647,"dumplings":5648,"igator":5649,"diffrent":5650,"chemistry":5651,"12":5652,"aisle":5653,"bis":5654,"barr":5655,"cc":5656,"drew":5657,"fre":5658,"fai":5659,"hash":5660,"lug":5661,"lavig":5662,"mong":5663,"nuts":5664,"overs":5665,"pp":5666,"rats":5667,"slip":5668,"sang":5669,"swords":5670,"sized":5671,"zon":5672,"inspir":5673,"thers":5674,"once":5675,"ander":5676,"hog":5677,"medium":5678,"chap":5679,"stit":5680,"roaming":5681,"oraga":5682,"acce":5683,"actu":5684,"ico":5685,"outer":5686,"spread":5687,"mock":5688,"select":5689,"seeds":5690,"amic":5691,"foil":5692,"trapped":5693,"disco":5694,"shake":5695,"pod":5696,"poo":5697,"poor":5698,"animate":5699,"torch":5700,"tax":5701,"heard":5702,"movieclips":5703,"basic":5704,"brid":5705,"affect":5706,"wrist":5707,"quotes":5708,"sugg":5709,"offer":5710,"clut":5711,"horri":5712,"ished":5713,"handing":5714,"overview":5715,"overhead":5716,"hairstyle":5717,"socks":5718,"stark":5719,"float":5720,"ggies":5721,"acted":5722,"stories":5723,"motorbikes":5724,"doorway":5725,"slice":5726,"steph":5727,"volcano":5728,"advertis":5729,"worked":5730,"firetruck":5731,"preform":5732,"partment":5733,"pools":5734,"texts":5735,"balancing":5736,"ferrets":5737,"patio":5738,"achers":5739,"wax":5740,"blog":5741,"passed":5742,"owls":5743,"chron":5744,"oriental":5745,"raises":5746,"lyric":5747,"timber":5748,"collap":5749,"transit":5750,"announcing":5751,"statues":5752,"thanking":5753,"ibility":5754,"assembly":5755,"gently":5756,"hydr":5757,"landscapes":5758,"kneeling":5759,"tests":5760,"islands":5761,"crosses":5762,"2015":5763,"railway":5764,"fairies":5765,"tossing":5766,"pads":5767,"criti":5768,"zooming":5769,"attending":5770,"sleeveless":5771,"navigating":5772,"surprise":5773,"fantasy":5774,"guards":5775,"summer":5776,"struggles":5777,"bitsy":5778,"selection":5779,"chemicals":5780,"birthday":5781,"accessories":5782,"eastern":5783,"blinking":5784,"motorcyclist":5785,"balloons":5786,"extremely":5787,"wanting":5788,"buffalo":5789,"mystery":5790,"ribbon":5791,"alibaba":5792,"pregnant":5793,"nipple":5794,"abraham":5795,"hurricane":5796,"lavigne":5797,"oragami":5798,"15":5799,"cgi":5800,"dred":5801,"fine":5802,"gay":5803,"grown":5804,"hedge":5805,"jel":5806,"ku":5807,"kan":5808,"mous":5809,"madd":5810,"nar":5811,"nacho":5812,"ore":5813,"oval":5814,"okee":5815,"ren":5816,"saved":5817,"switch":5818,"va":5819,"wack":5820,"ygen":5821,"inv":5822,"influ":5823,"threw":5824,"thought":5825,"encing":5826,"plus":5827,"atmo":5828,"hori":5829,"reas":5830,"refri":5831,"reven":5832,"stones":5833,"rob":5834,"acade":5835,"tale":5836,"ership":5837,"abor":5838,"carton":5839,"menting":5840,"personnel":5841,"alligator":5842,"spel":5843,"spicy":5844,"dried":5845,"amuse":5846,"trade":5847,"dialo":5848,"immigr":5849,"shallow":5850,"maher":5851,"siting":5852,"dancer":5853,"tau":5854,"frames":5855,"veggies":5856,"interest":5857,"shops":5858,"shocked":5859,"differences":5860,"aggress":5861,"kitchenthere":5862,"coloured":5863,"hairs":5864,"derby":5865,"voting":5866,"visit":5867,"ggles":5868,"jobs":5869,"bats":5870,"cookie":5871,"serv":5872,"brocco":5873,"march":5874,"planets":5875,"hello":5876,"vesting":5877,"technic":5878,"greco":5879,"booth":5880,"cases":5881,"corpor":5882,"warming":5883,"graphy":5884,"salon":5885,"pattern":5886,"legal":5887,"tony":5888,"known":5889,"farlane":5890,"temple":5891,"liner":5892,"operate":5893,"peppa":5894,"necklace":5895,"collision":5896,"magnet":5897,"checked":5898,"axe":5899,"cherokee":5900,"biotechnology":5901,"destination":5902,"greeting":5903,"priest":5904,"apartment":5905,"fitting":5906,"staff":5907,"rubiks":5908,"draining":5909,"fluffy":5910,"reveal":5911,"waitress":5912,"flood":5913,"devices":5914,"crushing":5915,"cabinet":5916,"martian":5917,"microscope":5918,"warrior":5919,"mexico":5920,"utensil":5921,"investig":5922,"gladiator":5923,"islamic":5924,"represent":5925,"lovely":5926,"chinchilla":5927,"mathemat":5928,"fifth":5929,"advertisment":5930,"timberlake":5931,"madden":5932,"wacky":5933,"atmosp":5934,"horizon":5935,"refriger":5936,"amusement":5937,"broccoli":5938,"16":5939,"70":5940,"ak":5941,"bite":5942,"ceo":5943,"ckets":5944,"either":5945,"gone":5946,"gats":5947,"kab":5948,"mate":5949,"ote":5950,"patt":5951,"rays":5952,"sour":5953,"sight":5954,"tough":5955,"tact":5956,"inser":5957,"ances":5958,"erate":5959,"arcade":5960,"tofu":5961,"ands":5962,"hover":5963,"refer":5964,"recommen":5965,"chain":5966,"ites":5967,"stain":5968,"idea":5969,"acou":5970,"ict":5971,"outline":5972,"wiping":5973,"ederate":5974,"cops":5975,"carbon":5976,"beets":5977,"lover":5978,"loving":5979,"logs":5980,"dock":5981,"modi":5982,"mosqu":5983,"seating":5984,"graz":5985,"scan":5986,"appar":5987,"urf":5988,"compon":5989,"excell":5990,"goods":5991,"bye":5992,"tast":5993,"height":5994,"conspir":5995,"straps":5996,"cris":5997,"crisis":5998,"praying":5999,"screenshot":6000,"affe":6001,"rows":6002,"agree":6003,"smurf":6004,"clar":6005,"recap":6006,"recipes":6007,"throughout":6008,"greenery":6009,"typical":6010,"fired":6011,"fifa":6012,"letting":6013,"index":6014,"antic":6015,"msnbc":6016,"arrested":6017,"chanting":6018,"marine":6019,"marker":6020,"heading":6021,"programm":6022,"racer":6023,"lightly":6024,"pedes":6025,"spots":6026,"supermarket":6027,"workshop":6028,"stills":6029,"submarine":6030,"masala":6031,"mascara":6032,"casters":6033,"balance":6034,"pond":6035,"heroine":6036,"donut":6037,"umpire":6038,"strips":6039,"beneath":6040,"driveway":6041,"candles":6042,"wheelchair":6043,"cells":6044,"farting":6045,"braid":6046,"brakes":6047,"braids":6048,"goldfish":6049,"paul":6050,"installation":6051,"stopped":6052,"bullet":6053,"located":6054,"weaving":6055,"injuries":6056,"shoulders":6057,"lasers":6058,"generation":6059,"examines":6060,"thinks":6061,"confederate":6062,"cheeks":6063,"volkswagon":6064,"johnny":6065,"cardboard":6066,"cloudy":6067,"2014":6068,"jetta":6069,"syncing":6070,"cruz":6071,"damage":6072,"sleeves":6073,"successful":6074,"jesse":6075,"sailing":6076,"devil":6077,"league":6078,"dealership":6079,"encouraging":6080,"obstacles":6081,"impressive":6082,"squeezing":6083,"confronts":6084,"communicate":6085,"pudding":6086,"balloon":6087,"oxygen":6088,"dodge":6089,"dribbling":6090,"arranging":6091,"officials":6092,"rectangular":6093,"annoying":6094,"frightened":6095,"insects":6096,"psycho":6097,"tributes":6098,"advantages":6099,"neatly":6100,"smelling":6101,"stanky":6102,"elegant":6103,"crimin":6104,"accomplishments":6105,"agricul":6106,"dialogue":6107,"taught":6108,"gatsby":6109,"astr":6110,"bones":6111,"bump":6112,"backing":6113,"eight":6114,"f1":6115,"fill":6116,"fles":6117,"fps":6118,"hr":6119,"ified":6120,"jaws":6121,"lens":6122,"oy":6123,"oon":6124,"pts":6125,"pus":6126,"sid":6127,"uing":6128,"vw":6129,"vig":6130,"wast":6131,"wise":6132,"inste":6133,"enor":6134,"atic":6135,"atting":6136,"rev":6137,"removed":6138,"chim":6139,"chicks":6140,"stall":6141,"stages":6142,"aco":6143,"icated":6144,"wiel":6145,"edit":6146,"solar":6147,"asia":6148,"gam":6149,"personality":6150,"lovers":6151,"spending":6152,"dot":6153,"mob":6154,"mode":6155,"semin":6156,"unks":6157,"elabor":6158,"scree":6159,"trum":6160,"viet":6161,"upside":6162,"frosting":6163,"comb":6164,"exhi":6165,"expression":6166,"essed":6167,"rip":6168,"itement":6169,"peri":6170,"heels":6171,"lings":6172,"strut":6173,"probab":6174,"cray":6175,"crum":6176,"cracking":6177,"pram":6178,"ards":6179,"lows":6180,"lower":6181,"picked":6182,"newsroom":6183,"brie":6184,"waterfalls":6185,"wrapped":6186,"offering":6187,"clad":6188,"tuce":6189,"skipping":6190,"keys":6191,"ggy":6192,"active":6193,"mering":6194,"jean":6195,"changed":6196,"grapple":6197,"forehead":6198,"mounted":6199,"counts":6200,"programming":6201,"advertises":6202,"ended":6203,"teachers":6204,"squares":6205,"racco":6206,"prev":6207,"snowman":6208,"partner":6209,"lightning":6210,"classes":6211,"nerd":6212,"garn":6213,"purpose":6214,"mascot":6215,"calcul":6216,"balding":6217,"elections":6218,"eyeglasses":6219,"carey":6220,"fixes":6221,"hamsters":6222,"movement":6223,"presses":6224,"farts":6225,"excitement":6226,"lamin":6227,"melting":6228,"sprays":6229,"stopping":6230,"statistics":6231,"pier":6232,"appearance":6233,"zzy":6234,"reflect":6235,"decorations":6236,"troo":6237,"actresses":6238,"provided":6239,"dragonball":6240,"truction":6241,"maintain":6242,"hundred":6243,"conditions":6244,"stepping":6245,"controls":6246,"confidence":6247,"auditions":6248,"bucks":6249,"massage":6250,"engage":6251,"fitness":6252,"pumpkins":6253,"pretends":6254,"adjusts":6255,"railroad":6256,"amongst":6257,"taped":6258,"gangs":6259,"revolver":6260,"ingrediants":6261,"cafeteria":6262,"continues":6263,"boils":6264,"response":6265,"symbol":6266,"springs":6267,"motiv":6268,"struggling":6269,"sprinkles":6270,"puddle":6271,"motorcyclists":6272,"memories":6273,"fails":6274,"skateboard":6275,"arranged":6276,"original":6277,"difficulties":6278,"mutant":6279,"katy":6280,"wwf":6281,"strainer":6282,"virus":6283,"choreographed":6284,"reverse":6285,"disease":6286,"analysis":6287,"mongo":6288,"stephen":6289,"atmosphere":6290,"refrigerator":6291,"acoustic":6292,"enormous":6293,"18":6294,"50":6295,"ah":6296,"bought":6297,"dal":6298,"dor":6299,"dive":6300,"gig":6301,"hd":6302,"hid":6303,"kart":6304,"khan":6305,"len":6306,"nav":6307,"pound":6308,"rus":6309,"sley":6310,"sending":6311,"tiles":6312,"ux":6313,"uer":6314,"inary":6315,"anna":6316,"thro":6317,"arch":6318,"aries":6319,"mand":6320,"always":6321,"ency":6322,"enclosed":6323,"attributes":6324,"revs":6325,"meadow":6326,"stating":6327,"stable":6328,"iday":6329,"orn":6330,"orders":6331,"acne":6332,"accus":6333,"talents":6334,"icle":6335,"eding":6336,"soy":6337,"showroom":6338,"code":6339,"mension":6340,"gae":6341,"gage":6342,"therap":6343,"becoming":6344,"loved":6345,"spong":6346,"drought":6347,"unders":6348,"elvis":6349,"blush":6350,"trance":6351,"dimension":6352,"guide":6353,"hispanic":6354,"maker":6355,"rifle":6356,"goss":6357,"ulum":6358,"muscles":6359,"tawa":6360,"condom":6361,"interrup":6362,"prop":6363,"ffiti":6364,"crabs":6365,"prim":6366,"worried":6367,"bry":6368,"brought":6369,"parag":6370,"parach":6371,"backdrop":6372,"thrill":6373,"ishes":6374,"handsome":6375,"crafting":6376,"sportscar":6377,"larry":6378,"lettuce":6379,"cycl":6380,"flor":6381,"flavo":6382,"arrange":6383,"feats":6384,"maria":6385,"nearly":6386,"boxer":6387,"boxers":6388,"helped":6389,"walkway":6390,"useful":6391,"cannot":6392,"fashions":6393,"hitler":6394,"drawers":6395,"choose":6396,"barn":6397,"casual":6398,"curling":6399,"correspon":6400,"porch":6401,"insides":6402,"rescue":6403,"engineers":6404,"texas":6405,"goalie":6406,"patter":6407,"cupboard":6408,"sticker":6409,"speakers":6410,"waking":6411,"spooning":6412,"rainbow":6413,"automatic":6414,"bending":6415,"quet":6416,"showcases":6417,"genet":6418,"robotic":6419,"cleaned":6420,"battlefield":6421,"involves":6422,"raised":6423,"dragging":6424,"scot":6425,"flys":6426,"wildlife":6427,"pale":6428,"palace":6429,"breath":6430,"helicopters":6431,"browsing":6432,"rubicks":6433,"powerful":6434,"valve":6435,"scoops":6436,"bloody":6437,"troop":6438,"beatles":6439,"assembles":6440,"donalds":6441,"conduct":6442,"examine":6443,"benefit":6444,"gentlemen":6445,"windy":6446,"positions":6447,"gorge":6448,"transform":6449,"escaping":6450,"pretend":6451,"gesturing":6452,"sample":6453,"sharks":6454,"interestingly":6455,"synchron":6456,"participate":6457,"simulation":6458,"sandwiches":6459,"destroys":6460,"candidates":6461,"prisoners":6462,"dolphins":6463,"zoomed":6464,"release":6465,"suspend":6466,"expressions":6467,"vacu":6468,"symph":6469,"advanced":6470,"breasts":6471,"olympics":6472,"macfarlane":6473,"pendulum":6474,"extensions":6475,"trekking":6476,"sleeve":6477,"delivering":6478,"correct":6479,"graffiti":6480,"comparison":6481,"thumbs":6482,"cosmetic":6483,"sniffing":6484,"bruce":6485,"competitors":6486,"capturing":6487,"rapidly":6488,"avatar":6489,"development":6490,"bmw":6491,"seminar":6492,"vietnam":6493,"period":6494,"laminate":6495,"mongoose":6496,"flavored":6497,"aul":6498,"aqu":6499,"dit":6500,"eth":6501,"evol":6502,"emotions":6503,"gles":6504,"glim":6505,"hide":6506,"might":6507,"nation":6508,"pipes":6509,"rack":6510,"rating":6511,"till":6512,"task":6513,"vily":6514,"wes":6515,"xed":6516,"yell":6517,"anor":6518,"thous":6519,"erous":6520,"alter":6521,"ened":6522,"enacted":6523,"plain":6524,"holo":6525,"retail":6526,"chu":6527,"stre":6528,"sticking":6529,"idol":6530,"leone":6531,"roy":6532,"ordin":6533,"iran":6534,"icon":6535,"icons":6536,"playfully":6537,"wipes":6538,"edges":6539,"assoc":6540,"advis":6541,"pleas":6542,"behav":6543,"become":6544,"user":6545,"loses":6546,"loss":6547,"ieval":6548,"boob":6549,"formed":6550,"sper":6551,"spain":6552,"spice":6553,"sparrow":6554,"domin":6555,"mole":6556,"molec":6557,"moped":6558,"mocking":6559,"gran":6560,"grad":6561,"unit":6562,"unwrapping":6563,"scr":6564,"scu":6565,"liber":6566,"foli":6567,"trips":6568,"disk":6569,"distr":6570,"neg":6571,"shing":6572,"shade":6573,"execut":6574,"rich":6575,"pean":6576,"tastic":6577,"hears":6578,"author":6579,"interface":6580,"interested":6581,"shovel":6582,"proce":6583,"proud":6584,"worth":6585,"assort":6586,"paranor":6587,"footloose":6588,"wresting":6589,"agent":6590,"backpacks":6591,"pancakes":6592,"tenance":6593,"thrones":6594,"tubes":6595,"horn":6596,"ishing":6597,"mature":6598,"ridor":6599,"bands":6600,"sportsman":6601,"skies":6602,"spects":6603,"putin":6604,"sheep":6605,"starbucks":6606,"cycling":6607,"telecast":6608,"serial":6609,"floors":6610,"modelling":6611,"engines":6612,"versus":6613,"motorcyle":6614,"solution":6615,"medieval":6616,"trailers":6617,"winding":6618,"tely":6619,"programs":6620,"fireplace":6621,"prehistoric":6622,"snowflakes":6623,"cape":6624,"tane":6625,"tany":6626,"nazi":6627,"supplies":6628,"berries":6629,"schools":6630,"barber":6631,"bartender":6632,"eaten":6633,"corridor":6634,"eggplant":6635,"portray":6636,"commerical":6637,"pens":6638,"masked":6639,"meatballs":6640,"silen":6641,"silhou":6642,"simmering":6643,"saucepan":6644,"blown":6645,"rainy":6646,"countryside":6647,"murry":6648,"wheeler":6649,"tested":6650,"azzi":6651,"lessons":6652,"photography":6653,"feedback":6654,"tourism":6655,"eyeshad":6656,"linux":6657,"numerous":6658,"global":6659,"churro":6660,"fantastic":6661,"heavily":6662,"rooftop":6663,"systems":6664,"surfers":6665,"grandmother":6666,"batteries":6667,"semite":6668,"paintings":6669,"vinegar":6670,"magn":6671,"bites":6672,"explore":6673,"towels":6674,"piggy":6675,"completed":6676,"seasonings":6677,"superheros":6678,"terrorists":6679,"skinned":6680,"flashlight":6681,"sequences":6682,"romancing":6683,"maintenance":6684,"blocky":6685,"crossed":6686,"eyelashes":6687,"mcdonalds":6688,"transfer":6689,"transformer":6690,"yosemite":6691,"amatuer":6692,"railing":6693,"cruise":6694,"physics":6695,"spectac":6696,"straigh":6697,"reveals":6698,"measure":6699,"attend":6700,"sailor":6701,"auditioning":6702,"methods":6703,"dumpster":6704,"expresses":6705,"journey":6706,"aims":6707,"encourages":6708,"australia":6709,"employees":6710,"houston":6711,"applauding":6712,"mashed":6713,"nestea":6714,"microsoft":6715,"papar":6716,"freaks":6717,"scrambled":6718,"reflects":6719,"admiring":6720,"sparkly":6721,"mushrooms":6722,"curtains":6723,"dipping":6724,"printed":6725,"supporting":6726,"nanotechnology":6727,"projector":6728,"theatre":6729,"monolo":6730,"earthquake":6731,"luggage":6732,"horrible":6733,"hedgehog":6734,"tactics":6735,"mosquito":6736,"agriculture":6737,"instead":6738,"probably":6739,"briefly":6740,"dimensional":6741,"gorgeous":6742,"vacuum":6743,"associ":6744,"assortment":6745,"paranormal":6746,"aer":6747,"athe":6748,"aor":6749,"atop":6750,"billy":6751,"cad":6752,"cass":6753,"eclip":6754,"foun":6755,"fills":6756,"gur":6757,"harry":6758,"ients":6759,"knot":6760,"kha":6761,"lone":6762,"mama":6763,"nay":6764,"nuc":6765,"nom":6766,"nig":6767,"pg":6768,"paying":6769,"pages":6770,"rav":6771,"rural":6772,"saves":6773,"tum":6774,"ufo":6775,"vom":6776,"wen":6777,"west":6778,"zip":6779,"thunder":6780,"oned":6781,"artwork":6782,"alex":6783,"entrance":6784,"toast":6785,"reme":6786,"chess":6787,"aya":6788,"idental":6789,"leash":6790,"leep":6791,"roles":6792,"rocking":6793,"accor":6794,"icide":6795,"outfield":6796,"outtakes":6797,"sold":6798,"asparag":6799,"asleep":6800,"coaches":6801,"carp":6802,"carved":6803,"addresses":6804,"bee":6805,"losing":6806,"iet":6807,"ounge":6808,"spy":6809,"singles":6810,"mos":6811,"moore":6812,"amid":6813,"gren":6814,"unseen":6815,"ghts":6816,"elle":6817,"scand":6818,"scrat":6819,"lia":6820,"dim":6821,"imperson":6822,"urer":6823,"eaks":6824,"update":6825,"rights":6826,"goth":6827,"goggles":6828,"teal":6829,"chard":6830,"fris":6831,"france":6832,"friday":6833,"strength":6834,"shock":6835,"projects":6836,"dresser":6837,"worn":6838,"mention":6839,"childs":6840,"phr":6841,"parsley":6842,"quit":6843,"tablets":6844,"panties":6845,"cameraman":6846,"chew":6847,"handheld":6848,"overweight":6849,"tled":6850,"pses":6851,"opposing":6852,"filter":6853,"matching":6854,"hiccups":6855,"istan":6856,"flick":6857,"rollers":6858,"steal":6859,"teammates":6860,"winners":6861,"cann":6862,"caption":6863,"supposed":6864,"understand":6865,"casc":6866,"dollar":6867,"cori":6868,"rests":6869,"rescu":6870,"grassland":6871,"engineer":6872,"hillside":6873,"texans":6874,"snugg":6875,"concerning":6876,"patent":6877,"cupcakes":6878,"graphical":6879,"achie":6880,"benz":6881,"burri":6882,"burns":6883,"mistakes":6884,"companies":6885,"wedges":6886,"maps":6887,"subscription":6888,"operates":6889,"reception":6890,"aliens":6891,"static":6892,"magnif":6893,"explode":6894,"rubic":6895,"checkered":6896,"logos":6897,"digest":6898,"cheerleaders":6899,"slamming":6900,"campus":6901,"wagon":6902,"assembled":6903,"ificent":6904,"logical":6905,"furry":6906,"harmony":6907,"examined":6908,"mechanics":6909,"approaching":6910,"promote":6911,"windshield":6912,"layer":6913,"paced":6914,"johnnie":6915,"broadcasting":6916,"whistle":6917,"2016":6918,"energet":6919,"shouts":6920,"community":6921,"kicked":6922,"199":6923,"fao":6924,"fault":6925,"killer":6926,"navigate":6927,"religion":6928,"flooded":6929,"reggae":6930,"suspect":6931,"husky":6932,"complains":6933,"threatens":6934,"articles":6935,"smells":6936,"2000":6937,"mustard":6938,"mermaids":6939,"embracing":6940,"napkin":6941,"fellow":6942,"mushroom":6943,"congratulating":6944,"sprinting":6945,"soaking":6946,"shelves":6947,"sculpture":6948,"transportation":6949,"integra":6950,"scorpion":6951,"jonas":6952,"rendering":6953,"frustrated":6954,"gadget":6955,"habitat":6956,"failed":6957,"kabadi":6958,"patties":6959,"stainless":6960,"components":6961,"excellent":6962,"tastes":6963,"conspiracy":6964,"psychology":6965,"spongbob":6966,"mariah":6967,"synchronized":6968,"suspended":6969,"western":6970,"eyeshadow":6971,"spectacular":6972,"paparazzi":6973,"monologue":6974,"khaki":6975,"nuclear":6976,"asparagus":6977,"magnifying":6978,"amed":6979,"bion":6980,"cers":6981,"fea":6982,"gon":6983,"hack":6984,"jul":6985,"jars":6986,"lm":6987,"ota":6988,"owing":6989,"pting":6990,"pel":6991,"ptions":6992,"punk":6993,"pave":6994,"rising":6995,"reno":6996,"raft":6997,"sou":6998,"sir":6999,"sav":7000,"slightly":7001,"tl":7002,"tuck":7003,"twins":7004,"uv":7005,"viny":7006,"wake":7007,"yol":7008,"zar":7009,"anges":7010,"tho":7011,"thread":7012,"isra":7013,"thed":7014,"total":7015,"andro":7016,"pla":7017,"aters":7018,"wool":7019,"homes":7020,"holid":7021,"rey":7022,"remov":7023,"replace":7024,"melo":7025,"meowing":7026,"itter":7027,"itant":7028,"stay":7029,"stab":7030,"root":7031,"orted":7032,"orbit":7033,"ira":7034,"ician":7035,"aband":7036,"howard":7037,"carving":7038,"whil":7039,"whist":7040,"bever":7041,"beads":7042,"lose":7043,"fort":7044,"keting":7045,"sec":7046,"seal":7047,"secon":7048,"ivia":7049,"grilled":7050,"eler":7051,"blur":7052,"scant":7053,"apps":7054,"true":7055,"trends":7056,"tried":7057,"diaper":7058,"difer":7059,"dispen":7060,"nepal":7061,"shit":7062,"shed":7063,"shell":7064,"shifting":7065,"exits":7066,"essential":7067,"tears":7068,"dee":7069,"degener":7070,"depp":7071,"avoc":7072,"blackboard":7073,"blackberry":7074,"charts":7075,"charging":7076,"whiteboard":7077,"veter":7078,"interaction":7079,"strapped":7080,"ffles":7081,"cracks":7082,"pruss":7083,"worms":7084,"igi":7085,"assorted":7086,"nod":7087,"write":7088,"suicide":7089,"cameron":7090,"cheal":7091,"illac":7092,"tuxed":7093,"cola":7094,"watchmojo":7095,"hairstyles":7096,"micheal":7097,"buf":7098,"skirts":7099,"clock":7100,"tyard":7101,"indic":7102,"horseback":7103,"cylin":7104,"mery":7105,"merced":7106,"policy":7107,"surge":7108,"marks":7109,"marley":7110,"grapes":7111,"ucky":7112,"vehical":7113,"solider":7114,"mount":7115,"courtyard":7116,"bigger":7117,"biggest":7118,"seemed":7119,"produced":7120,"snowboard":7121,"caps":7122,"nelly":7123,"hitch":7124,"fashioned":7125,"drawer":7126,"hatch":7127,"bleachers":7128,"trained":7129,"converse":7130,"garoo":7131,"casino":7132,"curves":7133,"cort":7134,"minutes":7135,"angle":7136,"styled":7137,"spoken":7138,"studying":7139,"wavy":7140,"relations":7141,"limbo":7142,"restaurants":7143,"rainforest":7144,"compound":7145,"compact":7146,"professionally":7147,"burn":7148,"multic":7149,"azi":7150,"lessly":7151,"instrumental":7152,"farming":7153,"label":7154,"links":7155,"brittany":7156,"panels":7157,"ramen":7158,"hardly":7159,"timer":7160,"bino":7161,"argues":7162,"receiver":7163,"learned":7164,"bulb":7165,"collar":7166,"transpar":7167,"announcement":7168,"searches":7169,"magical":7170,"powerpoint":7171,"completing":7172,"splashes":7173,"badmit":7174,"bubbling":7175,"princi":7176,"conducts":7177,"fued":7178,"normal":7179,"biology":7180,"satur":7181,"windmill":7182,"easily":7183,"greets":7184,"knee":7185,"kneels":7186,"escaped":7187,"monitors":7188,"bombing":7189,"gallo":7190,"ducklings":7191,"rabbits":7192,"samsung":7193,"wanted":7194,"consisting":7195,"ordering":7196,"decision":7197,"launching":7198,"knowledge":7199,"orously":7200,"teasing":7201,"ometer":7202,"simultane":7203,"diet":7204,"luigi":7205,"organis":7206,"flooding":7207,"suspen":7208,"strateg":7209,"wreck":7210,"adventures":7211,"nicki":7212,"lobby":7213,"infowars":7214,"blank":7215,"vitam":7216,"welding":7217,"terrific":7218,"applauded":7219,"embrace":7220,"grooming":7221,"papaya":7222,"tamil":7223,"vocalist":7224,"warriors":7225,"occurs":7226,"dubbed":7227,"duty":7228,"brien":7229,"wandering":7230,"cosmetics":7231,"awkwardly":7232,"vegetation":7233,"prosthetic":7234,"switches":7235,"panoramic":7236,"seduct":7237,"fictional":7238,"emotionally":7239,"fondant":7240,"jelly":7241,"nachos":7242,"utensils":7243,"mathematics":7244,"vigorously":7245,"wielding":7246,"navy":7247,"gossip":7248,"scotland":7249,"symphony":7250,"glimpses":7251,"magnificent":7252,"cadillac":7253,"eclipse":7254,"fountain":7255,"coriander":7256,"lmfao":7257,"pavement":7258,"removal":7259,"seconds":7260,"transparent":7261,"simultaneously":7262,"14":7263,"2d":7264,"barry":7265,"cg":7266,"cone":7267,"cate":7268,"cud":7269,"cise":7270,"diced":7271,"ebo":7272,"fers":7273,"fare":7274,"fist":7275,"fart":7276,"gall":7277,"gling":7278,"hell":7279,"hides":7280,"hamp":7281,"ii":7282,"ike":7283,"jur":7284,"jere":7285,"kong":7286,"mation":7287,"mick":7288,"oat":7289,"pbs":7290,"rather":7291,"rules":7292,"rpg":7293,"sab":7294,"sack":7295,"swal":7296,"sends":7297,"tone":7298,"tong":7299,"vamp":7300,"inav":7301,"inspec":7302,"invit":7303,"initi":7304,"thier":7305,"onscreen":7306,"isn":7307,"arab":7308,"manne":7309,"maneu":7310,"ouf":7311,"toss":7312,"atv":7313,"attered":7314,"hore":7315,"returns":7316,"stup":7317,"strea":7318,"rover":7319,"roaring":7320,"accur":7321,"ably":7322,"asing":7323,"gears":7324,"carol":7325,"ild":7326,"sped":7327,"spreads":7328,"kel":7329,"ami":7330,"amph":7331,"grab":7332,"grain":7333,"grave":7334,"grilling":7335,"unz":7336,"unte":7337,"tren":7338,"trial":7339,"trivia":7340,"divid":7341,"neon":7342,"poon":7343,"mail":7344,"commit":7345,"exh":7346,"richard":7347,"dangers":7348,"goats":7349,"pee":7350,"peers":7351,"lyn":7352,"sideways":7353,"struts":7354,"stranger":7355,"prom":7356,"monu":7357,"prices":7358,"destruction":7359,"nothing":7360,"aston":7361,"pics":7362,"offered":7363,"cloud":7364,"recre":7365,"handled":7366,"iance":7367,"bowel":7368,"closet":7369,"tired":7370,"intest":7371,"ipad":7372,"batting":7373,"flint":7374,"mercial":7375,"mingly":7376,"arranges":7377,"chance":7378,"surgeon":7379,"marketing":7380,"steven":7381,"versions":7382,"ushi":7383,"volunte":7384,"solid":7385,"hugged":7386,"premi":7387,"captions":7388,"caprio":7389,"sausage":7390,"sterically":7391,"hindu":7392,"controlling":7393,"ifying":7394,"darkness":7395,"choo":7396,"nerdy":7397,"garbage":7398,"curve":7399,"corners":7400,"porno":7401,"purchased":7402,"minions":7403,"minced":7404,"superb":7405,"resol":7406,"warcraft":7407,"stovetop":7408,"masks":7409,"camel":7410,"lantern":7411,"diner":7412,"twitter":7413,"policeman":7414,"patients":7415,"ios":7416,"waist":7417,"eventually":7418,"closeup":7419,"hamburgers":7420,"misty":7421,"accidental":7422,"talented":7423,"smokes":7424,"scaring":7425,"gency":7426,"avenger":7427,"yourself":7428,"colours":7429,"colourful":7430,"signal":7431,"surroundings":7432,"occas":7433,"banjo":7434,"banner":7435,"pitching":7436,"structures":7437,"countertop":7438,"owners":7439,"scope":7440,"businesses":7441,"paintball":7442,"mirrors":7443,"youtuber":7444,"recepie":7445,"installs":7446,"sprouts":7447,"everywhere":7448,"hopping":7449,"streams":7450,"awning":7451,"ramsay":7452,"provide":7453,"dumm":7454,"dumps":7455,"lorry":7456,"conductor":7457,"fuels":7458,"cabin":7459,"cables":7460,"hysterically":7461,"properties":7462,"compli":7463,"complicated":7464,"zee":7465,"doug":7466,"massaging":7467,"escapes":7468,"attach":7469,"bombs":7470,"audiance":7471,"platforms":7472,"daddy":7473,"nicho":7474,"decide":7475,"decides":7476,"skeletons":7477,"launcher":7478,"sketches":7479,"spirit":7480,"currently":7481,"gangster":7482,"revolving":7483,"namon":7484,"focusing":7485,"focused":7486,"paddles":7487,"require":7488,"leak":7489,"happiness":7490,"golfing":7491,"recently":7492,"illustration":7493,"illustrates":7494,"symbo":7495,"crushed":7496,"avoid":7497,"threatening":7498,"economic":7499,"rhian":7500,"sprinkler":7501,"brothers":7502,"russia":7503,"youths":7504,"sleeps":7505,"comfortable":7506,"mexican":7507,"compares":7508,"hours":7509,"pillars":7510,"excerpt":7511,"cinnamon":7512,"nutr":7513,"swirl":7514,"vince":7515,"shredded":7516,"triangle":7517,"knives":7518,"innov":7519,"pharmacy":7520,"intimate":7521,"sauces":7522,"enthusiastically":7523,"actually":7524,"clutch":7525,"kangaroo":7526,"immigration":7527,"grazing":7528,"apparently":7529,"oysters":7530,"trumpet":7531,"exhib":7532,"calculus":7533,"dalmat":7534,"bryant":7535,"thriller":7536,"cyclist":7537,"transformers":7538,"behavior":7539,"molecules":7540,"aorta":7541,"according":7542,"scandinav":7543,"energetic":7544,"vinyl":7545,"israel":7546,"abandoned":7547,"whilst":7548,"scantily":7549,"essentials":7550,"degeneres":7551,"avocado":7552,"prussia":7553,"mercedes":7554,"ebola":7555,"jeremy":7556,"vampire":7557,"mannequ":7558,"stupid":7559,"30":7560,"360":7561,"ago":7562,"crun":7563,"cities":7564,"cumin":7565,"dating":7566,"dates":7567,"dave":7568,"earr":7569,"giv":7570,"gno":7571,"gates":7572,"hing":7573,"hay":7574,"hail":7575,"hips":7576,"iing":7577,"ience":7578,"jing":7579,"jig":7580,"jaz":7581,"kaz":7582,"kung":7583,"mum":7584,"mish":7585,"mist":7586,"nd":7587,"obe":7588,"oons":7589,"pum":7590,"pace":7591,"pons":7592,"rum":7593,"rag":7594,"rang":7595,"sled":7596,"ssil":7597,"sizz":7598,"sushi":7599,"tick":7600,"tasks":7601,"uk":7602,"ude":7603,"vul":7604,"yer":7605,"yum":7606,"inters":7607,"incl":7608,"investing":7609,"inge":7610,"ara":7611,"manual":7612,"theory":7613,"enclo":7614,"towed":7615,"plu":7616,"pled":7617,"plying":7618,"reag":7619,"remain":7620,"reacts":7621,"remember":7622,"means":7623,"meaning":7624,"chand":7625,"chuck":7626,"chio":7627,"chats":7628,"strolling":7629,"strollers":7630,"rockets":7631,"orb":7632,"org":7633,"orable":7634,"acro":7635,"tali":7636,"icer":7637,"playning":7638,"playlist":7639,"outro":7640,"wizard":7641,"soon":7642,"coal":7643,"cocon":7644,"carl":7645,"caring":7646,"adol":7647,"adorable":7648,"bees":7649,"beyon":7650,"loaf":7651,"alls":7652,"mothers":7653,"sections":7654,"ampoo":7655,"grated":7656,"uncooked":7657,"ghan":7658,"eline":7659,"elsa":7660,"blends":7661,"scrubs":7662,"fossil":7663,"trous":7664,"diary":7665,"imper":7666,"distur":7667,"shines":7668,"shaves":7669,"shampoo":7670,"poking":7671,"verity":7672,"common":7673,"comically":7674,"exiting":7675,"explayning":7676,"esses":7677,"utions":7678,"gospel":7679,"decl":7680,"department":7681,"perfu":7682,"ulting":7683,"charity":7684,"ighs":7685,"umpy":7686,"clippers":7687,"condi":7688,"convince":7689,"vet":7690,"stress":7691,"struck":7692,"progr":7693,"promotion":7694,"worst":7695,"mentions":7696,"loop":7697,"asters":7698,"phies":7699,"kitty":7700,"affects":7701,"panzee":7702,"puff":7703,"beaker":7704,"handbag":7705,"roadside":7706,"mattress":7707,"ridden":7708,"glac":7709,"biking":7710,"bust":7711,"sportscaster":7712,"opport":7713,"closer":7714,"tyre":7715,"spear":7716,"lett":7717,"planning":7718,"startled":7719,"stocking":7720,"flirt":7721,"creative":7722,"maroon":7723,"backgrounds":7724,"basement":7725,"lectures":7726,"solved":7727,"wardrobe":7728,"rugr":7729,"whats":7730,"cannon":7731,"firework":7732,"gerbil":7733,"seemingly":7734,"producing":7735,"treas":7736,"gamestop":7737,"angels":7738,"underground":7739,"barbies":7740,"curb":7741,"dollars":7742,"pulpit":7743,"pups":7744,"pork":7745,"portu":7746,"purchasing":7747,"spoo":7748,"spoke":7749,"experts":7750,"respons":7751,"chickens":7752,"pyram":7753,"additional":7754,"casts":7755,"skydiving":7756,"balck":7757,"twister":7758,"aii":7759,"practical":7760,"profile":7761,"sticky":7762,"fixed":7763,"speedometer":7764,"strikes":7765,"compiled":7766,"beginner":7767,"ironman":7768,"lson":7769,"metro":7770,"farmers":7771,"popping":7772,"skiers":7773,"lifter":7774,"pitches":7775,"directing":7776,"hippo":7777,"ssion":7778,"subscribing":7779,"equation":7780,"pairs":7781,"titans":7782,"pak":7783,"christian":7784,"000":7785,"messes":7786,"status":7787,"explosions":7788,"completely":7789,"trophies":7790,"beaten":7791,"assemble":7792,"krabs":7793,"stationary":7794,"debt":7795,"debating":7796,"harbor":7797,"norway":7798,"example":7799,"examples":7800,"kylie":7801,"shoreline":7802,"mostly":7803,"bounce":7804,"grows":7805,"gory":7806,"rushes":7807,"mccart":7808,"prize":7809,"tesla":7810,"attaches":7811,"levels":7812,"tackles":7813,"princesses":7814,"rabbi":7815,"diagrams":7816,"didn":7817,"launches":7818,"keeper":7819,"teasers":7820,"spectacle":7821,"groceries":7822,"tosses":7823,"wishing":7824,"bolts":7825,"ranting":7826,"successfully":7827,"connecting":7828,"navigation":7829,"navigates":7830,"specifications":7831,"alcoholic":7832,"infomercial":7833,"leadership":7834,"vita":7835,"beiber":7836,"posts":7837,"selecting":7838,"terrible":7839,"squeezes":7840,"aerospace":7841,"celery":7842,"marinate":7843,"alpaca":7844,"roasting":7845,"dodging":7846,"comfort":7847,"rhyme":7848,"wanders":7849,"thumb":7850,"ville":7851,"villi":7852,"emergency":7853,"believe":7854,"grinding":7855,"grinder":7856,"panorama":7857,"cinema":7858,"pollution":7859,"witnesses":7860,"junkies":7861,"dentist":7862,"twirls":7863,"central":7864,"affected":7865,"naruto":7866,"academic":7867,"services":7868,"technician":7869,"horizontal":7870,"crispy":7871,"criminal":7872,"chimpanzee":7873,"strutting":7874,"crayons":7875,"troops":7876,"genetic":7877,"scuba":7878,"peanut":7879,"proceeds":7880,"portrayed":7881,"lonely":7882,"burrito":7883,"bionic":7884,"secssion":7885,"tuxedo":7886,"buffet":7887,"hatchback":7888,"barrymore":7889,"hampster":7890,"tongs":7891,"exhaust":7892,"accidentally":7893,"dummies":7894,"scandinavia":7895,"enclosure":7896,"reagan":7897,"coconut":7898,"perfume":7899,"opportun":7900,"mccartney":7901,"4th":7902,"aman":7903,"atoon":7904,"bould":7905,"cain":7906,"cture":7907,"cant":7908,"cider":7909,"cene":7910,"eer":7911,"fum":7912,"fact":7913,"fade":7914,"glow":7915,"gary":7916,"hen":7917,"hiring":7918,"ix":7919,"iers":7920,"ially":7921,"jess":7922,"lively":7923,"lounge":7924,"mn":7925,"mam":7926,"mtv":7927,"mars":7928,"mute":7929,"nies":7930,"nast":7931,"oe":7932,"pine":7933,"pins":7934,"previews":7935,"sul":7936,"sway":7937,"sally":7938,"sizes":7939,"tide":7940,"tapping":7941,"taps":7942,"utop":7943,"vd":7944,"vlo":7945,"yte":7946,"inas":7947,"inous":7948,"ane":7949,"anx":7950,"anas":7951,"tha":7952,"thm":7953,"onlook":7954,"oncoming":7955,"isten":7956,"mane":7957,"manu":7958,"manip":7959,"allowing":7960,"alumin":7961,"albino":7962,"ense":7963,"enough":7964,"encounter":7965,"andy":7966,"plum":7967,"atively":7968,"hol":7969,"hose":7970,"remix":7971,"return":7972,"replacing":7973,"returning":7974,"regular":7975,"rehear":7976,"meant":7977,"meow":7978,"chrome":7979,"itating":7980,"itated":7981,"stare":7982,"stack":7983,"ayer":7984,"legged":7985,"ropes":7986,"aced":7987,"aree":7988,"ables":7989,"coca":7990,"carn":7991,"gau":7992,"locking":7993,"bored":7994,"boom":7995,"boston":7996,"forens":7997,"drills":7998,"dripping":7999,"drilling":8000,"moto":8001,"grid":8002,"unfolding":8003,"blade":8004,"scious":8005,"scape":8006,"fog":8007,"trio":8008,"diag":8009,"imum":8010,"immers":8011,"urous":8012,"urant":8013,"disap":8014,"disgu":8015,"distress":8016,"disasters":8017,"nego":8018,"shave":8019,"poles":8020,"pood":8021,"pokes":8022,"upright":8023,"ballroom":8024,"entire":8025,"uted":8026,"gohan":8027,"goblin":8028,"walmart":8029,"defe":8030,"dealing":8031,"defeats":8032,"sites":8033,"danced":8034,"ucks":8035,"format":8036,"frank":8037,"cony":8038,"const":8039,"conve":8040,"confl":8041,"conven":8042,"concentr":8043,"conscious":8044,"veil":8045,"downhill":8046,"internal":8047,"ominous":8048,"crou":8049,"pride":8050,"standup":8051,"desc":8052,"assic":8053,"nods":8054,"phine":8055,"pheno":8056,"parks":8057,"quo":8058,"quant":8059,"aggy":8060,"clash":8061,"cribing":8062,"reci":8063,"mats":8064,"lesal":8065,"awa":8066,"awaren":8067,"mich":8068,"glam":8069,"skim":8070,"computerized":8071,"clearing":8072,"olden":8073,"sock":8074,"footballs":8075,"filip":8076,"jumped":8077,"intex":8078,"visited":8079,"cycles":8080,"joining":8081,"slapping":8082,"highly":8083,"highlighting":8084,"jewel":8085,"brook":8086,"wholesal":8087,"arrives":8088,"arresting":8089,"reviewer":8090,"marsh":8091,"headlights":8092,"steals":8093,"grammar":8094,"studies":8095,"cure":8096,"ruby":8097,"counters":8098,"observing":8099,"captures":8100,"hitman":8101,"celebrations":8102,"barrel":8103,"barcel":8104,"instit":8105,"garb":8106,"cursing":8107,"cursor":8108,"cord":8109,"portal":8110,"experie":8111,"supercar":8112,"stiring":8113,"experiencing":8114,"silk":8115,"entered":8116,"skyrim":8117,"balcony":8118,"empi":8119,"syl":8120,"simon":8121,"sneak":8122,"stickers":8123,"lisk":8124,"languages":8125,"ryan":8126,"storyboard":8127,"blogger":8128,"hamburger":8129,"candies":8130,"burg":8131,"goodbye":8132,"tonight":8133,"tongue":8134,"doughnuts":8135,"professionals":8136,"scares":8137,"borat":8138,"tomb":8139,"demostr":8140,"democr":8141,"drove":8142,"cleanser":8143,"lining":8144,"italian":8145,"jumpsuit":8146,"cutscene":8147,"sorts":8148,"hikers":8149,"titled":8150,"received":8151,"wildly":8152,"include":8153,"dusty":8154,"pathway":8155,"loaded":8156,"fingernail":8157,"seasoned":8158,"rams":8159,"splatoon":8160,"vanilla":8161,"skinny":8162,"questioning":8163,"constructed":8164,"logist":8165,"appreci":8166,"dropbox":8167,"diesel":8168,"writer":8169,"maths":8170,"confession":8171,"transplants":8172,"greet":8173,"pageant":8174,"cartons":8175,"bomber":8176,"lecturer":8177,"crawl":8178,"foundation":8179,"blindfold":8180,"ghostbusters":8181,"crust":8182,"pilot":8183,"cliffs":8184,"damaged":8185,"webpage":8186,"directors":8187,"hilly":8188,"dicus":8189,"simulator":8190,"drains":8191,"measures":8192,"anything":8193,"connect":8194,"destroyed":8195,"gangnam":8196,"sailors":8197,"organization":8198,"region":8199,"roberts":8200,"shadows":8201,"bagel":8202,"cornstarch":8203,"senator":8204,"senior":8205,"welcome":8206,"avoiding":8207,"interactive":8208,"advance":8209,"troubles":8210,"detailing":8211,"simpson":8212,"dribbles":8213,"freaking":8214,"sentence":8215,"sentences":8216,"praises":8217,"notebook":8218,"rectangle":8219,"occurring":8220,"dutch":8221,"rhymes":8222,"nifer":8223,"stools":8224,"safely":8225,"safari":8226,"insect":8227,"excercise":8228,"vegetarian":8229,"switching":8230,"hawaii":8231,"smashed":8232,"columns":8233,"jockeys":8234,"jenner":8235,"jennifer":8236,"expectations":8237,"austin":8238,"cranberry":8239,"pixel":8240,"accepting":8241,"selected":8242,"transition":8243,"transitions":8244,"critique":8245,"aggressive":8246,"otehr":8247,"modified":8248,"astron":8249,"waste":8250,"raccoons":8251,"previous":8252,"motivational":8253,"hidden":8254,"breathtaking":8255,"gradu":8256,"shingles":8257,"executive":8258,"moscow":8259,"renovation":8260,"yolk":8261,"android":8262,"holiday":8263,"diferent":8264,"cylinder":8265,"seductively":8266,"jurassic":8267,"oatmeal":8268,"maneuver":8269,"trendy":8270,"intestines":8271,"resolution":8272,"symbols":8273,"gnoc":8274,"organs":8275,"rugrats":8276,"manipul":8277,"negoti":8278,"poodle":8279,"phenomen":8280,"awareness":8281,"filipino":8282,"barcelona":8283,"empire":8284,"aut":8285,"bout":8286,"bby":8287,"bster":8288,"cau":8289,"curing":8290,"diver":8291,"dexter":8292,"dvd":8293,"fauce":8294,"fades":8295,"fudd":8296,"gps":8297,"gross":8298,"hes":8299,"hawk":8300,"iac":8301,"kent":8302,"kia":8303,"kale":8304,"kki":8305,"lil":8306,"lick":8307,"lamp":8308,"mma":8309,"ninten":8310,"oso":8311,"oke":8312,"ored":8313,"olored":8314,"rc":8315,"rink":8316,"sac":8317,"suck":8318,"sledge":8319,"tides":8320,"tney":8321,"tlers":8322,"tupper":8323,"vro":8324,"vag":8325,"vend":8326,"ya":8327,"zy":8328,"insp":8329,"inspects":8330,"erts":8331,"isy":8332,"isine":8333,"ald":8334,"enqu":8335,"esat":8336,"escent":8337,"tomy":8338,"toky":8339,"plating":8340,"plug":8341,"plugs":8342,"rein":8343,"kings":8344,"chup":8345,"iter":8346,"itent":8347,"stea":8348,"stals":8349,"stabbing":8350,"ided":8351,"leaps":8352,"rotor":8353,"account":8354,"tals":8355,"icum":8356,"playful":8357,"outlet":8358,"editor":8359,"ased":8360,"asion":8361,"aside":8362,"gelatin":8363,"carves":8364,"menus":8365,"whit":8366,"videotaping":8367,"belly":8368,"playingg":8369,"ionally":8370,"forces":8371,"forests":8372,"spell":8373,"spiders":8374,"terms":8375,"moss":8376,"sean":8377,"seper":8378,"seiz":8379,"grading":8380,"union":8381,"unfor":8382,"uneven":8383,"elmer":8384,"blong":8385,"blessing":8386,"scout":8387,"tric":8388,"tricy":8389,"trians":8390,"tracy":8391,"tracing":8392,"trunks":8393,"urine":8394,"disc":8395,"disappears":8396,"discovered":8397,"disci":8398,"shining":8399,"shaggy":8400,"poe":8401,"pos":8402,"poly":8403,"polar":8404,"poop":8405,"gues":8406,"gull":8407,"guiding":8408,"aint":8409,"expan":8410,"exchange":8411,"foos":8412,"dangling":8413,"cartoonish":8414,"wning":8415,"estic":8416,"estate":8417,"goers":8418,"beings":8419,"tect":8420,"defin":8421,"peels":8422,"animat":8423,"pero":8424,"torso":8425,"ultim":8426,"charc":8427,"newly":8428,"bycycle":8429,"speach":8430,"tag":8431,"youngsters":8432,"ucking":8433,"formation":8434,"formul":8435,"framed":8436,"conco":8437,"contr":8438,"contrap":8439,"consequences":8440,"aux":8441,"aude":8442,"proof":8443,"produce":8444,"monk":8445,"cra":8446,"ketchup":8447,"kidding":8448,"mented":8449,"cush":8450,"scenar":8451,"nokia":8452,"loosing":8453,"chilled":8454,"pictured":8455,"newswoman":8456,"braz":8457,"para":8458,"afghan":8459,"backstreet":8460,"backseat":8461,"tends":8462,"clans":8463,"clones":8464,"claims":8465,"chevro":8466,"illumin":8467,"tvs":8468,"recie":8469,"recoun":8470,"recip":8471,"horns":8472,"descript":8473,"glider":8474,"gluten":8475,"budd":8476,"opy":8477,"option":8478,"tyres":8479,"tyear":8480,"tible":8481,"ialyte":8482,"vows":8483,"lightyear":8484,"visits":8485,"antage":8486,"joint":8487,"joins":8488,"joker":8489,"battles":8490,"beautician":8491,"stood":8492,"stolen":8493,"sery":8494,"creator":8495,"marty":8496,"markets":8497,"stealing":8498,"swiming":8499,"settlers":8500,"funk":8501,"funnel":8502,"cuisine":8503,"rude":8504,"winds":8505,"vertical":8506,"courses":8507,"woody":8508,"squatting":8509,"racoons":8510,"observes":8511,"snowmobile":8512,"hitter":8513,"treated":8514,"sax":8515,"longer":8516,"homeland":8517,"cessing":8518,"chose":8519,"underway":8520,"barri":8521,"competes":8522,"curvy":8523,"coral":8524,"alongside":8525,"minute":8526,"spokes":8527,"facility":8528,"facilities":8529,"sciences":8530,"rappers":8531,"rapture":8532,"resem":8533,"result":8534,"warfare":8535,"subjects":8536,"nikki":8537,"cauc":8538,"siles":8539,"calories":8540,"dinning":8541,"balances":8542,"emph":8543,"profit":8544,"ferb":8545,"salmon":8546,"traveled":8547,"snor":8548,"snip":8549,"sneaks":8550,"donations":8551,"seafood":8552,"limit":8553,"technolog":8554,"iot":8555,"athletics":8556,"closely":8557,"traits":8558,"burner":8559,"burnt":8560,"missiles":8561,"acceler":8562,"doughnut":8563,"unibrow":8564,"pressed":8565,"multiplayer":8566,"demolit":8567,"elect":8568,"sounding":8569,"circus":8570,"rims":8571,"sony":8572,"liquids":8573,"bananas":8574,"sorting":8575,"hardware":8576,"heaven":8577,"businessman":8578,"flynt":8579,"equations":8580,"processes":8581,"procession":8582,"roofs":8583,"needing":8584,"activated":8585,"seasons":8586,"seashore":8587,"bullets":8588,"kilt":8589,"announcers":8590,"palying":8591,"paths":8592,"hooded":8593,"carrier":8594,"philoso":8595,"powered":8596,"tuned":8597,"thank":8598,"values":8599,"scooters":8600,"belle":8601,"belts":8602,"splash":8603,"documents":8604,"dense":8605,"denim":8606,"dumping":8607,"euro":8608,"construct":8609,"prince":8610,"stretched":8611,"tarp":8612,"ensive":8613,"camping":8614,"freeway":8615,"cherry":8616,"centered":8617,"hunters":8618,"kobe":8619,"podiums":8620,"controlled":8621,"satel":8622,"yemen":8623,"layout":8624,"strangely":8625,"eyelash":8626,"mcdonald":8627,"attaching":8628,"galley":8629,"lemons":8630,"sanitary":8631,"tackling":8632,"platter":8633,"consum":8634,"2011":8635,"environmental":8636,"anatomy":8637,"radical":8638,"dashcam":8639,"tapes":8640,"pinoc":8641,"pinned":8642,"wishes":8643,"nurses":8644,"nursery":8645,"villains":8646,"dramatically":8647,"fluid":8648,"crop":8649,"mites":8650,"surfboards":8651,"violently":8652,"destroy":8653,"competitively":8654,"customi":8655,"sawing":8656,"register":8657,"couldn":8658,"continu":8659,"continue":8660,"soapy":8661,"crystals":8662,"amounts":8663,"terrified":8664,"impressions":8665,"bradford":8666,"figurine":8667,"bulldo":8668,"sinking":8669,"widget":8670,"industries":8671,"communicating":8672,"memorial":8673,"cotton":8674,"cocktails":8675,"napkins":8676,"oxide":8677,"stripped":8678,"valleys":8679,"screws":8680,"admirals":8681,"congratulated":8682,"canoe":8683,"museums":8684,"dubai":8685,"annoyed":8686,"onaut":8687,"popsicle":8688,"calmly":8689,"translates":8690,"flexes":8691,"impact":8692,"cinder":8693,"emerges":8694,"nude":8695,"advances":8696,"receipee":8697,"sniffs":8698,"combining":8699,"combined":8700,"bushes":8701,"cinematic":8702,"fishermen":8703,"hawking":8704,"moustache":8705,"stalks":8706,"competitor":8707,"somone":8708,"chorus":8709,"falcons":8710,"gummy":8711,"thermometer":8712,"saucer":8713,"inspirational":8714,"stitching":8715,"taxi":8716,"hydraul":8717,"revenge":8718,"aggressively":8719,"inserting":8720,"pedestrians":8721,"revving":8722,"mobiles":8723,"screeen":8724,"gigantic":8725,"therapy":8726,"parachutes":8727,"floral":8728,"ditch":8729,"evolution":8730,"hologram":8731,"sperm":8732,"scraper":8733,"negative":8734,"silencer":8735,"silhouet":8736,"straighten":8737,"vomit":8738,"remedies":8739,"dimly":8740,"achieve":8741,"digestive":8742,"1997":8743,"feather":8744,"july":8745,"sirens":8746,"meryl":8747,"multicolored":8748,"badmitton":8749,"saturday":8750,"strategies":8751,"micky":8752,"invites":8753,"pornography":8754,"rhianna":8755,"earrings":8756,"obelisk":8757,"sizzling":8758,"interse":8759,"plugging":8760,"acrobat":8761,"imperial":8762,"treasure":8763,"nasty":8764,"onlookers":8765,"carnival":8766,"diagno":8767,"phineas":8768,"wholesalers":8769,"experiement":8770,"gnocchi":8771,"nintendo":8772,"tokyo":8773,"discipl":8774,"ultimate":8775,"contraption":8776,"brazil":8777,"chevrolet":8778,"3th":8779,"4k":8780,"aff":8781,"bart":8782,"bends":8783,"cit":8784,"cans":8785,"cia":8786,"dar":8787,"dion":8788,"daw":8789,"dick":8790,"dori":8791,"flights":8792,"gly":8793,"glove":8794,"gifts":8795,"hl":8796,"hiv":8797,"hut":8798,"hud":8799,"haz":8800,"iest":8801,"iff":8802,"jav":8803,"jake":8804,"jama":8805,"lou":8806,"lun":8807,"lack":8808,"lest":8809,"loung":8810,"licks":8811,"laws":8812,"mz":8813,"mim":8814,"mour":8815,"mclo":8816,"mca":8817,"mashing":8818,"oh":8819,"oblong":8820,"pam":8821,"peach":8822,"ppy":8823,"peak":8824,"rou":8825,"rons":8826,"rants":8827,"rene":8828,"sis":8829,"sch":8830,"saree":8831,"tics":8832,"tissue":8833,"uplo":8834,"vases":8835,"wis":8836,"wro":8837,"wiring":8838,"yan":8839,"ymca":8840,"infr":8841,"invention":8842,"thouse":8843,"thai":8844,"isions":8845,"theories":8846,"alt":8847,"aland":8848,"alty":8849,"alot":8850,"entry":8851,"plic":8852,"plow":8853,"reall":8854,"replays":8855,"remin":8856,"cham":8857,"chimp":8858,"stur":8859,"stum":8860,"staying":8861,"stations":8862,"lever":8863,"irical":8864,"irrit":8865,"abled":8866,"wiz":8867,"asph":8868,"cowell":8869,"coaching":8870,"geese":8871,"carcass":8872,"someine":8873,"sometimes":8874,"illegal":8875,"address":8876,"adjac":8877,"beams":8878,"usc":8879,"users":8880,"usion":8881,"tering":8882,"dres":8883,"sep":8884,"irly":8885,"ivity":8886,"ivals":8887,"gras":8888,"grades":8889,"unic":8890,"undressing":8891,"unfolds":8892,"unpacking":8893,"ghazi":8894,"elines":8895,"blimp":8896,"scare":8897,"scattered":8898,"liflower":8899,"tres":8900,"traged":8901,"digs":8902,"ima":8903,"impossible":8904,"imitating":8905,"discovering":8906,"disagree":8907,"disabled":8908,"nether":8909,"shared":8910,"shaved":8911,"pov":8912,"maj":8913,"comics":8914,"composed":8915,"compartment":8916,"bally":8917,"entrep":8918,"rips":8919,"riley":8920,"wee":8921,"watts":8922,"degree":8923,"peel":8924,"avour":8925,"reddish":8926,"airs":8927,"ultra":8928,"feild":8929,"uction":8930,"hey":8931,"hearts":8932,"formations":8933,"fraud":8934,"confer":8935,"contem":8936,"reef":8937,"repaired":8938,"downs":8939,"proto":8940,"protes":8941,"protests":8942,"processing":8943,"month":8944,"prank":8945,"screencast":8946,"kiddie":8947,"phd":8948,"loway":8949,"bricks":8950,"parent":8951,"parlia":8952,"suff":8953,"puree":8954,"cler":8955,"cheap":8956,"chewing":8957,"handgun":8958,"overlooking":8959,"overtaking":8960,"hairspray":8961,"awl":8962,"ridicul":8963,"glory":8964,"gluing":8965,"bia":8966,"bizar":8967,"buggy":8968,"skins":8969,"basketballs":8970,"clown":8971,"tyga":8972,"tained":8973,"topping":8974,"streep":8975,"voiced":8976,"suited":8977,"flown":8978,"photoshoot":8979,"stored":8980,"cutter":8981,"flirts":8982,"slab":8983,"slaps":8984,"slapped":8985,"slicer":8986,"array":8987,"arriving":8988,"televison":8989,"marath":8990,"marble":8991,"picturesque":8992,"headband":8993,"headlines":8994,"appliance":8995,"solutions":8996,"mounts":8997,"medal":8998,"trails":8999,"mountainside":9000,"courts":9001,"courage":9002,"mesh":9003,"laughter":9004,"buses":9005,"observed":9006,"snowboarding":9007,"indians":9008,"supply":9009,"bert":9010,"parties":9011,"partners":9012,"juices":9013,"juicing":9014,"contro":9015,"betting":9016,"kissed":9017,"chosen":9018,"sunsets":9019,"pedialyte":9020,"garment":9021,"garments":9022,"garner":9023,"casket":9024,"curls":9025,"porn":9026,"portable":9027,"conversations":9028,"purses":9029,"purchase":9030,"miners":9031,"minnes":9032,"faced":9033,"tural":9034,"turquo":9035,"respective":9036,"warning":9037,"warns":9038,"penis":9039,"penne":9040,"experimenting":9041,"calf":9042,"indiana":9043,"earli":9044,"pasting":9045,"izer":9046,"besides":9047,"twice":9048,"twisting":9049,"aimed":9050,"resturant":9051,"morph":9052,"bookcase":9053,"seagull":9054,"winged":9055,"leggo":9056,"laun":9057,"venue":9058,"folder":9059,"blob":9060,"blocking":9061,"rains":9062,"autograph":9063,"freddies":9064,"benghazi":9065,"midst":9066,"miso":9067,"accross":9068,"began":9069,"folk":9070,"rotated":9071,"rotates":9072,"genie":9073,"gender":9074,"photographing":9075,"liquor":9076,"surrounds":9077,"excav":9078,"stuffs":9079,"britain":9080,"brittney":9081,"pitched":9082,"raod":9083,"raider":9084,"stairwell":9085,"dragons":9086,"depiction":9087,"scolds":9088,"population":9089,"interiors":9090,"earths":9091,"actively":9092,"catchy":9093,"catcher":9094,"collider":9095,"batmanton":9096,"phillies":9097,"tuna":9098,"tunes":9099,"weaves":9100,"honor":9101,"completes":9102,"decoration":9103,"fication":9104,"campfire":9105,"ronald":9106,"dental":9107,"stores":9108,"explores":9109,"logic":9110,"harvesting":9111,"medication":9112,"skilled":9113,"shaping":9114,"skits":9115,"flattening":9116,"promotes":9117,"satirical":9118,"zealand":9119,"bookshel":9120,"buckets":9121,"transfers":9122,"prior":9123,"sucking":9124,"galloway":9125,"ireland":9126,"fitted":9127,"bono":9128,"whisk":9129,"whisking":9130,"consisten":9131,"2012":9132,"flee":9133,"flees":9134,"swiftly":9135,"claymation":9136,"maybe":9137,"decades":9138,"secretary":9139,"launched":9140,"knows":9141,"physio":9142,"tossed":9143,"increase":9144,"simulating":9145,"critter":9146,"elevated":9147,"cigarettes":9148,"prisoner":9149,"branches":9150,"addicts":9151,"illustrated":9152,"crystal":9153,"effective":9154,"complexion":9155,"selections":9156,"squeeze":9157,"housing":9158,"sinks":9159,"gowns":9160,"visuals":9161,"strongly":9162,"softball":9163,"applauds":9164,"marinating":9165,"extends":9166,"failing":9167,"cockpit":9168,"antique":9169,"scrambling":9170,"screwdriver":9171,"apolog":9172,"praise":9173,"reflecting":9174,"reflection":9175,"felt":9176,"sparkle":9177,"correctly":9178,"duties":9179,"tentacles":9180,"forklift":9181,"flexible":9182,"mysterious":9183,"blasting":9184,"converted":9185,"convertible":9186,"commander":9187,"sarah":9188,"strokes":9189,"roots":9190,"imagery":9191,"oddly":9192,"integrated":9193,"dreaming":9194,"risk":9195,"leeks":9196,"goofy":9197,"goofing":9198,"muffler":9199,"egyptian":9200,"bangs":9201,"tweets":9202,"recovery":9203,"actual":9204,"discovery":9205,"poorly":9206,"bridges":9207,"collapses":9208,"reasons":9209,"academy":9210,"technicians":9211,"recommended":9212,"scanning":9213,"dodgeball":9214,"elaborate":9215,"hundreds":9216,"throat":9217,"accused":9218,"patterns":9219,"thousand":9220,"streamer":9221,"aerob":9222,"raven":9223,"amidst":9224,"phrases":9225,"savanna":9226,"melody":9227,"stabbed":9228,"iraq":9229,"whistling":9230,"beverage":9231,"nodding":9232,"principle":9233,"organisms":9234,"cuddles":9235,"ikea":9236,"saber":9237,"arabic":9238,"exhibition":9239,"kazoo":9240,"condiments":9241,"spooky":9242,"villian":9243,"opportunity":9244,"rehearsing":9245,"forensic":9246,"conflict":9247,"quantum":9248,"skimpy":9249,"phenomenon":9250,"cauliflower":9251,"seizures":9252,"unfortun":9253,"tricycle":9254,"animatron":9255,"formulas":9256,"recipie":9257,"descriptive":9258,"caucasian":9259,"technologies":9260,"electro":9261,"pinocchio":9262,"cinderella":9263,"doritos":9264,"mclobster":9265,"reallity":9266,"asphalt":9267,"adjacent":9268,"parliament":9269,"ridiculous":9270,"bizarre":9271,"minnesota":9272,"turquoise":9273,"17":9274,"22":9275,"300":9276,"aa":9277,"avideo":9278,"afro":9279,"agram":9280,"bw":9281,"bent":9282,"bong":9283,"bree":9284,"beng":9285,"bons":9286,"biting":9287,"bunk":9288,"cum":9289,"crep":9290,"cough":9291,"dall":9292,"fk":9293,"fy":9294,"gin":9295,"gini":9296,"hbo":9297,"iph":9298,"jfk":9299,"luc":9300,"lived":9301,"ml":9302,"mout":9303,"mound":9304,"mated":9305,"nations":9306,"ophone":9307,"oreg":9308,"opra":9309,"pse":9310,"pim":9311,"rs":9312,"rare":9313,"rend":9314,"rental":9315,"swat":9316,"swearing":9317,"sens":9318,"sights":9319,"tac":9320,"til":9321,"tons":9322,"tnt":9323,"taco":9324,"tmz":9325,"uar":9326,"uit":9327,"uter":9328,"vas":9329,"vast":9330,"zel":9331,"zum":9332,"zuc":9333,"zach":9334,"inch":9335,"init":9336,"ints":9337,"infl":9338,"inspect":9339,"thail":9340,"thief":9341,"era":9342,"eries":9343,"error":9344,"oni":9345,"ariel":9346,"mansion":9347,"thee":9348,"alu":9349,"alive":9350,"alled":9351,"align":9352,"aladd":9353,"aloud":9354,"ensem":9355,"espe":9356,"pless":9357,"plated":9358,"plush":9359,"plains":9360,"atti":9361,"woo":9362,"hostage":9363,"retr":9364,"reily":9365,"request":9366,"remodeling":9367,"reggie":9368,"kingdom":9369,"chini":9370,"chile":9371,"itable":9372,"lean":9373,"irting":9374,"ablish":9375,"outing":9376,"wiffle":9377,"edited":9378,"gee":9379,"caric":9380,"vide":9381,"ader":9382,"aded":9383,"adam":9384,"adian":9385,"gamers":9386,"thern":9387,"videotaped":9388,"beet":9389,"beech":9390,"becue":9391,"usain":9392,"locks":9393,"locked":9394,"iegn":9395,"bold":9396,"forrest":9397,"spend":9398,"spiel":9399,"dosa":9400,"gameboy":9401,"singapo":9402,"drifts":9403,"moro":9404,"moist":9405,"seater":9406,"amari":9407,"grade":9408,"grips":9409,"grumpy":9410,"units":9411,"elin":9412,"blend":9413,"sce":9414,"scal":9415,"scre":9416,"scann":9417,"scrolled":9418,"scitent":9419,"aph":9420,"apar":9421,"appy":9422,"liked":9423,"fow":9424,"trend":9425,"trapping":9426,"traps":9427,"trench":9428,"imac":9429,"urai":9430,"discover":9431,"dispose":9432,"neu":9433,"necess":9434,"shu":9435,"sher":9436,"shards":9437,"ception":9438,"poem":9439,"poachers":9440,"gut":9441,"guin":9442,"guese":9443,"uphill":9444,"upscale":9445,"masters":9446,"makers":9447,"verbally":9448,"enty":9449,"exp":9450,"excess":9451,"exposing":9452,"riffle":9453,"rifles":9454,"utiful":9455,"utility":9456,"establish":9457,"reenacting":9458,"teh":9459,"dem":9460,"deers":9461,"deter":9462,"deals":9463,"detect":9464,"petals":9465,"avage":9466,"inet":9467,"pertain":9468,"ulty":9469,"charge":9470,"charges":9471,"newest":9472,"youngster":9473,"frant":9474,"fringe":9475,"cones":9476,"confet":9477,"provo":9478,"ffled":9479,"cruc":9480,"crate":9481,"kettle":9482,"priced":9483,"bass":9484,"iggy":9485,"asses":9486,"assign":9487,"chilly":9488,"picnic":9489,"newsweek":9490,"brus":9491,"brave":9492,"parti":9493,"parrots":9494,"quali":9495,"quote":9496,"ager":9497,"agger":9498,"agitated":9499,"panting":9500,"panics":9501,"smacks":9502,"tenis":9503,"claude":9504,"animatedly":9505,"throne":9506,"handic":9507,"overalls":9508,"matically":9509,"grounds":9510,"characteristics":9511,"sportscenter":9512,"sportscasters":9513,"skates":9514,"skater":9515,"bowser":9516,"cloves":9517,"cleavage":9518,"uded":9519,"filters":9520,"letes":9521,"planned":9522,"varying":9523,"voted":9524,"keytar":9525,"indy":9526,"lightening":9527,"lighthouse":9528,"starry":9529,"intel":9530,"suitcase":9531,"guitarists":9532,"antro":9533,"jog":9534,"beauties":9535,"flam":9536,"slender":9537,"merry":9538,"merkel":9539,"cookware":9540,"server":9541,"bros":9542,"whom":9543,"creme":9544,"ignition":9545,"poline":9546,"polka":9547,"ctic":9548,"surfaces":9549,"stems":9550,"appling":9551,"teammate":9552,"cuting":9553,"cuff":9554,"rust":9555,"ruins":9556,"rugged":9557,"medals":9558,"likely":9559,"county":9560,"mountainous":9561,"mountaintop":9562,"canal":9563,"canopy":9564,"canadian":9565,"workings":9566,"evalu":9567,"preh":9568,"prevent":9569,"obs":9570,"snowden":9571,"capital":9572,"treats":9573,"juana":9574,"bleeding":9575,"darkened":9576,"sunday":9577,"barbecue":9578,"asians":9579,"instagram":9580,"installed":9581,"casually":9582,"coverings":9583,"curses":9584,"amazed":9585,"idential":9586,"epile":9587,"advertisements":9588,"mincraft":9589,"angled":9590,"supermoon":9591,"respect":9592,"residential":9593,"penn":9594,"penalty":9595,"potatos":9596,"notice":9597,"caused":9598,"kenned":9599,"calamari":9600,"addams":9601,"skyscraper":9602,"fourth":9603,"pasture":9604,"pastries":9605,"shotgun":9606,"restuar":9607,"salsa":9608,"travers":9609,"wingspan":9610,"legend":9611,"careers":9612,"softly":9613,"friendly":9614,"spooned":9615,"bills":9616,"billboard":9617,"informative":9618,"motherboard":9619,"burned":9620,"mistake":9621,"accents":9622,"smoker":9623,"boring":9624,"sweets":9625,"orient":9626,"photographers":9627,"companion":9628,"demolish":9629,"drowning":9630,"stuffing":9631,"occuring":9632,"gloss":9633,"cowboys":9634,"involve":9635,"raiders":9636,"vied":9637,"vibr":9638,"script":9639,"drags":9640,"dragged":9641,"shrimps":9642,"depict":9643,"otter":9644,"bicycles":9645,"helpful":9646,"equality":9647,"binford":9648,"hikes":9649,"melts":9650,"retro":9651,"hurts":9652,"dug":9653,"duel":9654,"christie":9655,"specialist":9656,"grande":9657,"messi":9658,"palin":9659,"pallet":9660,"brows":9661,"victim":9662,"bieber":9663,"checkers":9664,"touched":9665,"costumed":9666,"artistic":9667,"lioness":9668,"value":9669,"scooped":9670,"diglett":9671,"decorate":9672,"trooper":9673,"wonders":9674,"slammed":9675,"belief":9676,"wagging":9677,"splits":9678,"healthcare":9679,"krab":9680,"vanqu":9681,"constructing":9682,"trucking":9683,"futbol":9684,"sequin":9685,"targets":9686,"judgement":9687,"explanations":9688,"fuzzy":9689,"kermit":9690,"cambo":9691,"universal":9692,"ponytail":9693,"blocked":9694,"costs":9695,"collects":9696,"promoted":9697,"bios":9698,"biotech":9699,"satis":9700,"layup":9701,"confident":9702,"hulu":9703,"munks":9704,"mccain":9705,"greeted":9706,"kneel":9707,"enjoyed":9708,"gravity":9709,"aquariums":9710,"samurai":9711,"tripod":9712,"ninjas":9713,"ghosts":9714,"haul":9715,"gazelle":9716,"bumps":9717,"crude":9718,"radi":9719,"cilantro":9720,"sketching":9721,"lopez":9722,"spirits":9723,"communities":9724,"intensely":9725,"increasing":9726,"fairly":9727,"drained":9728,"functionality":9729,"measured":9730,"attendant":9731,"succession":9732,"connects":9733,"festivals":9734,"rodeo":9735,"statement":9736,"organize":9737,"organizing":9738,"brands":9739,"releasing":9740,"continuing":9741,"jerseys":9742,"alog":9743,"cracker":9744,"personalities":9745,"separating":9746,"separated":9747,"salesman":9748,"jamming":9749,"terminal":9750,"posted":9751,"cially":9752,"applications":9753,"glittery":9754,"glittering":9755,"advantage":9756,"sells":9757,"passengers":9758,"kimon":9759,"alpha":9760,"bacca":9761,"developed":9762,"martin":9763,"maximum":9764,"governor":9765,"marinated":9766,"marinade":9767,"century":9768,"mashup":9769,"toddlers":9770,"cocktail":9771,"strawberries":9772,"kara":9773,"accompanies":9774,"dribble":9775,"kreugar":9776,"113th":9777,"chipmunks":9778,"sparkling":9779,"syrian":9780,"tampoline":9781,"peaceful":9782,"journalists":9783,"buffy":9784,"surviv":9785,"translating":9786,"frightening":9787,"conditioning":9788,"lawyer":9789,"carpentry":9790,"ribbons":9791,"gladiators":9792,"smoothie":9793,"sprints":9794,"believing":9795,"tinct":9796,"soaked":9797,"shredders":9798,"geography":9799,"viral":9800,"stroke":9801,"rooster":9802,"brutal":9803,"barely":9804,"nutella":9805,"perfoming":9806,"scorpions":9807,"dreams":9808,"preca":9809,"wounded":9810,"avatars":9811,"column":9812,"sauteing":9813,"ritual":9814,"slopes":9815,"pharmac":9816,"bursts":9817,"muffin":9818,"earthquakes":9819,"frustration":9820,"gadgets":9821,"tweet":9822,"attractions":9823,"soilder":9824,"spitting":9825,"expected":9826,"assistant":9827,"twirling":9828,"biscuit":9829,"cctv":9830,"hashbrowns":9831,"inspiring":9832,"bridget":9833,"suggest":9834,"suggests":9835,"collapsing":9836,"critiqu":9837,"influenced":9838,"reason":9839,"spelling":9840,"immigrants":9841,"revealed":9842,"investigating":9843,"representation":9844,"representative":9845,"affection":9846,"clarkson":9847,"criminals":9848,"astronaut":9849,"flesh":9850,"screeching":9851,"ripped":9852,"crumbs":9853,"raccoon":9854,"dorado":9855,"ornate":9856,"therapies":9857,"primer":9858,"parachute":9859,"arrangements":9860,"patterned":9861,"thousands":9862,"royal":9863,"ordinary":9864,"boobs":9865,"liberty":9866,"foliage":9867,"district":9868,"transferring":9869,"associated":9870,"thunderbird":9871,"grenade":9872,"frisk":9873,"quitting":9874,"snuggling":9875,"plaque":9876,"blurry":9877,"dispenser":9878,"galloping":9879,"suspense":9880,"vitamins":9881,"category":9882,"gallery":9883,"swallowing":9884,"inspecting":9885,"initially":9886,"amphi":9887,"divided":9888,"monument":9889,"chooses":9890,"requirements":9891,"swirling":9892,"innovative":9893,"dalmatian":9894,"mannequins":9895,"crunch":9896,"jazz":9897,"rangers":9898,"yummy":9899,"remembering":9900,"beyond":9901,"puffer":9902,"stockings":9903,"portuguese":9904,"pyramid":9905,"utopian":9906,"manufac":9907,"aluminum":9908,"disappointed":9909,"conveyor":9910,"convenience":9911,"confessional":9912,"faucet":9913,"tupperware":9914,"foosball":9915,"definition":9916,"concoction":9917,"saxophone":9918,"demolition":9919,"philosophy":9920,"intersection":9921,"disciplinary":9922,"dawson":9923,"javelin":9924,"lounging":9925,"reneur":9926,"wrote":9927,"reminis":9928,"tragedy":9929,"majestic":9930,"entrepreneur":9931,"marathon":9932,"controvers":9933,"laundry":9934,"excavator":9935,"consistency":9936,"oregon":9937,"oprah":9938,"zumba":9939,"zucchini":9940,"thailand":9941,"aladdin":9942,"especially":9943,"spielberg":9944,"singapore":9945,"scanned":9946,"scitentist":9947,"necessary":9948,"frantically":9949,"confetti":9950,"provocat":9951,"partially":9952,"epilepsy":9953,"kennedy":9954,"21":9955,"27":9956,"4x":9957,"64":9958,"911":9959,"airl":9960,"aults":9961,"amole":9962,"bb":9963,"bou":9964,"bid":9965,"broom":9966,"bble":9967,"cong":9968,"creen":9969,"coff":9970,"cpu":9971,"cult":9972,"dc":9973,"deo":9974,"dus":9975,"dated":9976,"dread":9977,"dual":9978,"effic":9979,"eeing":9980,"fid":9981,"ffe":9982,"fani":9983,"fuses":9984,"fought":9985,"fenced":9986,"gm":9987,"gie":9988,"gni":9989,"garet":9990,"gwen":9991,"harm":9992,"hazy":9993,"hift":9994,"ipo":9995,"iency":9996,"ijuana":9997,"ja":9998,"jer":9999},"merges":["i n","in g","a n","t h","e r","o n","i s","a r","m an","th e","a l","e n","e s","o u","t o","an d","p l","a t","w o","h o","o f","r e","m e","k ing","c h","i t","s t","a y","i d","l e","r o","o r","i r","e o","a c","t al","er s","i c","ar e","a b","pl ay","ho w","ou t","w i","wo man","e d","wi th","s o","a s","s how","ab out","c o","tal king","g e","c ar","so me","m en","i l","v id","w h","a d","g a","th er","vid eo","pl e","p ers","t s","b e","pers on","u s","play ing","i on","l o","i e","b o","ou n","t ing","al l","f or","s p","d o","t er","ga me","s ing","d r","k e","p eo","m o","s e","peo ple","k s","ir l","g irl","on e","i v","a m","g r","u n","t wo","g h","e l","b l","s c","a p","l i","f o","t r","ac k","d i","i m","u r","v ie","e a","d is","n e","s h","c e","a ge","l d","p o","g u","wh i","a in","u p","h is","m a","v er","f ro","h er","co m","o ther","fro m","b all","en t","e x","fo o","sing ing","es s","whi le","oun d","r i","w e","to on","d an","car toon","on g","u t","w n","it e","es t","some one","iv ing","show ing","re en","g o","be ing","w al","w at","t e","id e","at ion","d e","p e","a v","ther e","an im","vie w","in e","bl ack","li p","p er","ar ing","re d","s it","gu y","a ir","th ing","to r","u l","ch ar","m us","ne w","ou p","bo y","b y","f e","dan c","tal ks","co o","sp ea","char ac","i gh","wh ite","mus ic","u m","st age","t a","oun g","gr oup","y oung","ir t","show n","wo men","l y","u c","h e","c lip","for m","f r","l ing","c on","re e","s ide","v e","a u","re p","mo vie","r un","do wn","danc ing","in ter","s ong","st r","s ho","ex pl","in to","foo d","p ro","u e","at ing","m on","f f","ic e","o m","sh irt","dr ess","c r","ac e","some thing","ke t","at ed","p r","sc reen","k id","we aring","b as","st and","ad y","wo r","men t","ar d","d es","i es","ar ound","c us","i g","as s","sc en","n o","lo o","sit ting","expl ain","a st","ea ch","t ab","wal king","ou r","ch il","n ing","p h","dis cus","p ing","d ing","lo w","t ion","p ic","new s","am er","o l","b r","p ar","k it","an other","ou gh","ro om","t ers","foo t","l l","wat er","l ady","a f","bl ue","th at","ro w","w r","di en","di ff","the ir","y ing","q u","inter view","s u","diff er","a g","per form","spea king","coo king","differ ent","fr on","play s","ma ke","ou s","b ack","of f","tab le","p an","s m","p u","ch en","fron t","kit chen","d s","g iving","t en","c amer","show s","camer a","do ing","dr iving","c er","c l","ch e","il l","anim ated","c ri","t v","the n","th r","t u","re c","ld ing","charac ters","ho r","be a","at e","co l","stand ing","scen e","tal k","is h","h and","p rep","kid s","ma king","thr ough","as h","o ver","des cri","iv e","it s","wr est","wat ch","ro ad","sp or","i an","h air","bas ket","f igh","h av","m at","ur es","girl s","gr ound","l es","c at","th is","ap er","charac ter","run ning","o d","a w","descri b","t le","m al","p aper","explain ing","l it","r id","to y","ph one","cr af","ge t","f ul","do g","m i","mo v","b and","play er","p s","g l","b i","craf t","b u","b ab","spor ts","l ar","play ed","i ous","s es","dis h","s k","it y","g reen","mal e","perform ing","basket ball","o p","bo w","k es","c lo","sm all","t y","c ou","com pu","t ain","compu ter","sp e","ic k","p ut","in side","to p","loo king","er e","c le","ho lding","ver y","f i","st ree","t i","sh e","d er","play ers","lar ge","a il","u d","o ld","m ine","it ar","so c","bab y","foot ball","f il","i al","dr en","chil dren","j um","le t","pl an","th ree","de mon","to ge","toge ther","demon str","at es","iv es","wrest ling","hav ing","v ar","au dien","audien ce","anim al","v o","d uc","bow l","ke y","w ay","in k","mine craft","col or","in d","sing s","li gh","c k","hor se","stree t","mat ch","dis playing","us ing","st ar","soc cer","c row","in t","v is","gl ass","su it","h ic","el l","figh ting","d el","rid ing","d y","h im","h as","tu re","spea ks","pr es","watch ing","i p","f ie","var ious","gu itar","crow d","go ing","f lo","pe t","c y","dan ce","an t","g g","ac t","chil d","lit tle","is t","j o","n is","ing re","mi x","rep or","le d","b at","p ho","the y","ten nis","out side","bea ut","f ace","b ed","pho to","s to","discus sing","p ie","the m","c ut","mo tor","car s","f l","y el","do or","ar s","ou se","ro ll","s l","m er","g y","dien ts","h igh","bu il","ingre dients","coo k","te le","sho o","j e","s er","b ro","w ho","r ace","fie ld","m ing","m s","c re","vo ice","ar r","re view","wh ere","mov ing","ta king","t ures","m ic","ig n","ur ing","en ce","ch an","cou ple","po l","tele vis","flo or","mo del","get ting","clip s","c t","is e","fe at","describ ing","s ur","foot age","m ar","pic tures","plan e","man y","he ad","televis ion","back ground","f all","guy s","prep aring","put ting","st e","s wi","se t","bea ch","au gh","se ver","f ri","ap pl","buil ding","sever al","en g","gr am","e ating","v ers","f ish","an s","ne ar","bo x","te am","a th","bl on","gr ap","i pe","bas e","tr ack","h el","interview ed","che f","make up","a ke","re ad","motor cy","wal k","fe male","f am","le c","uc k","ve hic","yel low","us h","discus ses","wal ks","v ol","st u","so l","t ed","f un","se l","w ard","w as","in str","un ch","fo re","m oun","po t","bo b","no w","roll er","bo ard","c u","r u","ro s","ar y","whi ch","explain s","jum ping","bro wn","i ful","me d","li ke","wh at","sho r","anim ation","op en","ion s","tr ail","beaut iful","us e","tr ying","rec ipe","c oun","w in","ly ing","ic s","sp on","ver t","t el","tor y","e t","ar t","moun tain","c an","h ouse","pro gram","g es","st roller","spon ge","glass es","swi m","base ball","n arr","il y","ad vert","animal s","h u","en d","u re","en ts","j ud","dress ed","g un","describ es","c our","pie ce","wo od","m es","wor k","wor king","p ink","ay ing","b ig","pic ture","tion s","fi re","t each","blon de","igh t","e y","c ial","g er","s qu","l augh","it ion","sit s","b us","e v","hand s","r ac","ad e","se e","scen es","prep are","p re","ar k","rec or","com ment","pro duc","f ast","le go","o b","bo t","s now","bi ke","c ap","f ash","n el","h it","in di","toy s","t an","n a","discus s","s up","tr uck","t re","b er","ic al","ag es","fash ion","s a","ch air","ce le","g ives","l ong","b ir","r ing","loo ks","dis played","bo at","vehic le","cele br","trail er","c ity","st er","ma ch","dr aw","mix ing","tel ling","w all","x t","men ts","mon key","ga mes","ne xt","par t","h ind","j u","ho me","ho st","motorcy cle","ligh t","con t","be t","sponge bob","v es","n y","shor t","be hind","l ive","an ge","te ch","sol di","h at","k is","sc ho","b le","i f","d ark","tr ain","c es","c ho","we en","scho ol","con vers","g re","s un","iv er","cl ass","ch ing","b ut","ld s","fam ily","n er","ros s","j ac","un der","b ar","as ian","mic ro","bo o","e at","p ed","in st","boy s","g ar","all y","th row","id er","c as","co ver","fo lding","tr y","instr uc","demonstr ating","com pet","c ur","do ll","ve ge","e ch","shoo ting","dr ives","ap pe","po ol","p ul","a tor","am a","jud ges","b unch","c or","e gg","id ent","re a","fil m","swim ming","b s","e p","p up","advert ise","ch es","bet ween","p or","convers ation","spe ech","f ir","p ur","al ong","game play","l and","le y","chan nel","d uring","run s","ligh ts","m in","an g","to ri","st y","for est","sp o","gy m","f lying","do es","ex per","f low","af ter","ma kes","il ing","f ac","advertise ment","l ine","com mer","m y","ge ts","t ur","b ag","sc i","v ing","wrest l","r ap","pl ate","repor ter","sup er","pl ac","in s","st ir","ro l","stand s","p ain","co me","par k","feat ures","r es","y ou","pl ace","p ian","commer cial","hav e","micro phone","sp ider","aw ay","d a","ro r","w ar","pian o","id es","tr am","p our","st ud","di o","cut ting","ta to","d ay","w av","mach ine","er ing","ic ks","p en","in es","im ages","po tato","te en","cour t","thing s","i um","gr ass","wor ks","figh t","tab les","int ro","compet ition","st ill","tram pol","ac ting","ti me","jac ket","air plane","ic an","bo dy","laugh ing","m ade","no t","su b","ick en","trampol ine","n i","sto ve","soldi ers","recor ding","sel f","draw ing","exper i","m as","ch icken","ac tor","c a","me at","on s","ic es","s il","person s","k en","p y","c al","dr in","ne y","en ds","ad d","eng ine","indi an","ac ross","let ter","at t","re ady","be fore","l an","en ter","h ill","tre es","grap h","c ess","c ast","it ing","ro ck","a ga","t ex","co at","n ight","d in","lo t","sk y","rac ing","f our","re l","b al","e ar","p ast","sho t","loo k","f in","i z","en jo","sho p","e m","b es","o il","p on","sing er","t w","vege tables","o th","com ing","stu dio","f t","a i","e lec","r est","tori al","per for","danc es","s y","fe w","read ing","s low","demonstr ates","produc t","pres ent","go al","pr act","pr of","perform s","pu ts","clo th","her o","f er","m or","ay s","s al","s im","an c","mo tion","ta kes","ast ic","tu torial","boo k","c ks","w ere","tr av","ey e","s n","con cer","je ct","f ing","po lit","pol ice","out door","fir st","re am","ho lds","d on","m il","c key","p ong","p t","p at","s le","se a","li m","ess ion","her e","on es","run way","c up","appl ying","fun ny","man ce","w ing","ad ding","ash ing","on to","se x","b a","f lip","l aying","dog s","an gr","le g","photo s","r ound","wor ld","pur ple","are a","ta ke","trav el","ac ks","ation s","sto re","concer t","b rea","c are","u al","it ies","st ick","teach ing","ac tion","grap hic","tech no","ho t","am p","rid es","intro duc","ho ckey","or ange","wh e","au ce","aga inst","l is","s of","spea k","lan gu","l ap","do w","qu est","ful l","at ure","ic ing","fri end","po w","i o","r y","er c","me al","lo gy","old er","a ch","ch as","po ke","ex erc","h ap","s auce","um p","prep ar","model s","kis sing","langu age","im age","po in","a ur","v ice","w a","jum ps","pres ident","ward s","fore ign","w ell","fi x","oth ers","angr y","d le","the s","fri ends","spo on","b ill","t ou","l a","bir ds","poke mon","ev ent","un k","ju st","gre y","bes ide","b ing","r iver","s tory","pl astic","br ush","perfor mance","r ay","an i","st ad","interview ing","in form","high lights","squ id","v en","us es","tr ies","des k","cl u","spe ed","int on","sl ides","cont est","ad ds","gh t","fo ld","stad ium","st ri","rest aur","b lo","o ce","r ain","sh ip","au to","t ig","wh en","clo thes","f red","appe ars","b en","at er","gr ay","av e","elec tr","oce an","an ts","bi k","li fe","ath let","se g","clo se","b ad","h am","dr ive","coun try","drin king","po sing","mov es","fall s","m ur","ta ken","comment ating","com p","beaut y","win dow","i or","se en","wrestl ers","letter man","prof ession","c and","mo ther","tr a","ri ght","pie ces","techno logy","restaur ant","b ur","ta il","vol ley","instruc tions","seg ment","wi ll","sc or","cou ch","sci ence","m id","p ack","video s","go es","pan ts","mov ies","inform ation","q ue","pl es","iv en","con tain","des ign","ai red","mo ve","com pe","l f","t ie","es e","whe el","feat uring","open ing","c king","al ity","ne t","m is","t ree","ac c","out f","c ts","go od","gym n","me tal","no od","comment ary","enjo ying","t on","be g","dr ink","fall ing","d ough","m u","an ce","show cas","tur n","da vid","tal ent","as king","stud ents","e f","p ass","cat s","doll s","potato es","en ting","demonstr ation","ts h","dis ney","c tor","s mo","ir on","gg ing","tex t","es sing","team s","fo l","profession al","a ther","c lim","o w","ro t","sp ace","tan k","k no","l s","m ul","s car","is ing","ic y","un i","pres enting","c ell","h al","h aired","el y","ite ms","mountain s","hit ting","fred dy","g en","t est","ro bot","com men","throw ing","slides how","tsh irt","s and","av eng","e ping","i a","l ad","hor ses","me t","ch r","mo re","sty le","g ing","h all","di a","form s","fr ying","par ts","a z","b or","n ice","pr ess","narr ator","rol ling","present ation","anc hor","fol low","him self","pour ing","l ess","at s","n ail","to wards","it ed","instr u","lis ten","s ed","v ed","cl es","f ar","te m","spe c","bir d","mid dle","us ed","pe ts","par ty","sm iling","d irt","fil ming","wood en","s we","s aying","is es","or i","photo graph","hu man","cover ed","aveng ers","er y","com pan","lap top","es ting","to m","one y","ani me","mul ti","fe ed","ob ama","o ds","po p","we ar","off ice","bi le","g ard","l ab","id ge","ab le","lo red","mo bile","el f","de mo","wor ds","d ro","e le","p ush","in i","squ are","m ouse","com es","wor d","s ound","ell s","m ir","iv ers","cle an","cut e","c ir","t our","lo ve","ey es","egg s","r im","y our","do ctor","interview s","ash es","prepar es","nood les","g s","li qu","po int","col our","narr ates","bot tle","be en","cartoon s","sho ts","athlet es","le ad","dr essing","l in","p ir","s on","s ign","ou ld","it al","co lored","clo thing","sur round","n um","to pic","itar y","outdoor s","ex c","br a","sk i","bat tle","ser ies","stu ff","o c","ou th","ap ping","ty pe","jum p","ru g","g lo","co w","li f","li es","cre am","p es","cu ts","cu be","a fr","dis play","amer ican","br it","watch es","fam ous","l ic","in vol","are d","squid ward","come dy","liqu id","go lf","pan el","c ake","i ps","t age","class room","b an","p it","r a","ga ther","sp an","off ic","ly r","str uc","mil itary","mon tage","che ering","color ful","h ang","k ed","r ide","in ess","ian s","sex y","gymn ast","l iving","st air","ic a","throw s","park ed","sil ver","s or","repor t","review ing","rug by","b ath","ch ur","cho p","v i","av es","coo ks","tig er","sc ri","ap e","multi ple","h ard","w ed","mur ray","volley ball","b c","f an","l ake","di rec","ite m","coun ter","part ic","pup py","por t","lad ies","g le","h ea","p ies","ad ul","sh a","b low","fil led","wrestl er","m oney","to o","ed uc","as ks","dr ag","go ld","et te","stir ring","h ip","en gl","ke pt","sh rim","we bs","ser ve","fire works","fix ing","webs ite","h its","m ap","z ing","to ol","ac king","wo ods","de pic","ill s","produc ts","quest ions","o t","s s","an n","ro pe","review s","cal led","o wn","s co","ga mi","po pul","par king","cl inton","bus iness","flow er","pain t","ori gami","c age","f ly","f ig","h ad","t im","ar row","be ar","inter ior","cook ed","pup pies","sub scri","mir ror","b icy","k ni","bl es","we ars","music al","hel p","span ish","lyr ics","shrim p","s ays","de vice","bus y","pour s","kni fe","e qu","p air","y out","is ts","be ard","sc ream","pro cess","lec ture","wav es","v y","ro of","dr um","br idge","gre at","yout u","b in","h i","l am","o per","ar gu","ne ed","dress es","teach er","mas k","sy ste","mor tal","h ers","t it","me l","shoo ts","ear th","pract icing","sle eping","educ ation","star ts","set ting","plac es","b run","re ce","al so","me e","wi ld","bo th","bo iling","repor ting","fin ish","er ial","re t","stree ts","hu ge","electr on","h ur","p a","y s","on line","le ar","ta tor","ans w","vehic les","pre t","ob ject","exerc ise","poin ts","o ven","in clu","ing s","er t","act iv","sur f","open s","prepare d","sa me","sci ent","compan y","popul ar","celebr ity","but ter","brun ette","f ather","s wing","inter acting","fl ag","tw are","sof tware","r ying","in ning","ou d","ir ts","tr ess","pe p","bicy cle","hers elf","n ature","dr iver","graphic s","k ind","t ells","s oup","to wn","tr icks","ne ck","inst all","pret ty","d u","f lies","l ly","st ers","car rying","sp r","se as","ph ones","tu b","shoo t","experi ment","din o","at tem","fo x","box ing","experi ence","chr ist","youtu be","c ing","il ation","se at","spe cial","outf it","hea vy","syste m","s top","le aves","pro ble","al i","gr and","fo lds","po ses","ul ar","ti ps","bat ter","hel met","discuss ion","comp ilation","0 0","b ul","spor t","cat ch","color s","al s","co ll","tr an","danc ers","cr ying","bat man","plac ed","actor s","e very","k il","v ill","in door","on ions","se m","sa ur","flow ers","ann oun","m ess","ho p","his tory","shor ts","pain ting","slow ly","brea k","chas ing","p al","p ath","ho ld","ho od","ro cks","fi gu","wed ding","b re","st at","star s","appl ies","celebr ating","b ers","j ap","car ri","ball s","hel ic","hal f","k om","s ion","v el","se ar","motorcy cles","narr ating","cour se","gar lic","scor es","showcas ing","listen ing","engl ish","b est","p i","v ine","ma g","sl ide","dino saur","figu re","helic op","kom bat","b it","b row","f ans","i ent","in y","me dia","st ream","ie ty","expl o","sur fing","ru b","att ack","turn s","instru ments","invol ving","d one","l ist","v ic","new sc","ph il","rap ping","spider man","wav ing","pow er","num ber","stair s","subscri be","jap an","b ie","d un","lo c","un t","ast er","star t","pow der","vi ol","mee ting","t un","w ea","le ft","che ck","hu gging","ev ents","add ed","tou ch","lly wood","c tion","d ed","th an","ama zing","bik ini","afr ican","3 d","g iven","h on","l er","co stu","pre forms","cand y","i b","th or","fe ct","cl apping","art ist","gard en","chur ch","l ion","al th","to w","id ing","lo go","sp ices","rep air","appe ar","hang ing","j un","p ig","v al","z o","tr act","kit ten","wr iting","mar ket","tan ce","shop ping","n ess","z z","en der","qu ar","mat erial","op pon","see ing","bal d","contain er","a me","m outh","s coo","v ent","re f","ap s","com ple","mon ster","fil med","building s","polit ics","hap pen","poin ting","scar y","uni form","surround ed","f at","f ive","y ard","ar ms","di g","sh irts","go t","de cor","che er","bab ies","ser ving","blon d","stir s","b loo","t ro","w on","in j","ac tress","be at","ful ly","sl am","je ans","kis s","gar age","ho le","tal l","lo ad","am es","sel fie","fing er","costu me","b read","f ic","be l","view ers","roll s","min i","teen ag","exc ited","equ ip","inclu ding","a wn","c n","c all","c amp","g ian","w ag","re al","sh ould","pro ject","see ms","flip s","ele ph","gymnast ics","fig ures","seas on","attem p","l at","l as","n at","r on","r am","s pl","as sem","bl ing","av ing","he alth","ty pes","mix es","soldi er","super hero","plac ing","pir ates","electron ic","k r","t ic","v an","ar m","me m","st ation","ir d","di um","pro vid","plan ts","cas e","instruc tion","offic er","helicop ter","p review","w ars","w ashing","ro wn","do cu","de b","su its","cle ar","if ic","vege table","gen er","d en","wh y","ter ror","dr iven","sk in","cou ples","sun glasses","drin ks","tail s","swe ater","gian t","d um","g an","g ent","w it","en ding","ac tions","el s","bl ic","view s","way s","ju ice","sim s","sn ake","don al","quest ion","bad m","compe ting","drag on","e u","g ed","me et","con struc","bu b","sk ating","chair s","l or","l ate","mo on","tr uc","del ic","repor ters","fl ash","yel ling","train ing","enter tain","fold ed","brit ish","equip ment","f ut","s word","st icks","se qu","pr in","water fall","hor ror","teen age","contest ant","tim es","s tor","st ret","po se","com ments","con duc","expl or","che ese","je cts","fac tory","stud ent","polit ical","smo king","r out","t ar","le te","be an","lo g","cr ash","aw ard","jud ge","ham ster","pep per","christ mas","fr u","expl an","high way","advert ising","indi vid","acc ident","follow ed","sha king","f ur","g ive","h ar","re ality","pu blic","col le","med ic","tech ni","fac es","rel ation","beg ins","hall way","clean ing","is o","en s","en ces","re ally","ab o","ti re","ath lete","read s","win ning","drum s","l ays","ff ic","mal es","ep iso","hill ary","pract ice","ba king","f u","h an","k in","n or","ho sp","co ach","song s","je ep","celebr ities","past a","delic ious","individ ual","hosp ital","a id","d augh","t esting","in a","is on","ro man","sing ers","ex am","bi kes","dish es","shoo ter","fer ence","mil k","commen tator","b right","k y","n ers","ch a","ic king","sho re","var iety","bed room","ste ps","eat s","introduc ing","hap py","clu b","stri ped","compe te","hon da","docu ment","a x","c ab","i tor","k er","l oud","m ain","p tion","v s","ar my","me chan","ke ts","mo st","di an","sh ips","de ad","cer tain","sk il","fri ed","appl y","pul ls","din ner","lif ting","scient ist","badm inton","c am","th in","peo ples","un ivers","ation al","qu ick","ag ed","commen ting","rout ine","episo de","b oun","f ree","f ake","i ed","t les","ch er","st ing","ap p","ap pro","tou ching","clim bing","dro p","ski ing","adul ts","daugh ter","c enter","h un","k o","n ed","p unch","with out","show ed","se ated","amer ica","fil ms","model ing","gun s","pul ling","pon y","sal t","wa iting","tra ffic","mu ch","japan ese","2 0","h y","m up","ur al","ea th","sh ap","up coming","music ians","des ert","par od","sk ills","sel ves","lego s","outf its","c ket","f ence","s kit","ab s","di es","po dium","con d","wr it","mar io","coun t","brea king","blo ck","square pants","donal d","g row","j im","co st","mo m","ma th","pro per","ig ning","spor ting","fl at","floor ing","teach es","come dian","contest ants","tool s","c ross","i led","al e","ic ally","com pl","we ight","con ference","sho es","par rot","sm art","col lec","laugh s","nail s","wea ther","jun gle","parod y","r ice","ch at","ad es","lo ts","igh ts","pro mo","bi o","them selves","ste p","vol ks","na me","iz z","travel ing","ben ef","feed ing","teenag ers","colle ge","abo ve","b road","st ates","ac ts","we ap","av or","pic k","cont rol","leg s","ben ch","argu ing","oppon ent","s at","car pet","il es","gu est","ma to","side walk","ell en","win s","monkey s","present ed","photograph s","gather ed","kr ue","gent le","c ed","u g","w ind","y e","ch ed","ic ed","gr ess","flo ating","chan ge","sur face","bar bie","kno cking","scream ing","b bc","f ind","h n","l ay","z e","ch ines","con f","au d","str ange","br ain","che e","hel d","recor ds","na med","sa fe","sun ny","boo ks","land sc","eleph ant","skil let","d est","p ac","r amp","is ed","at ures","ge ar","el ing","bl ender","po sit","de tails","su gar","cre ating","wav e","travel ling","scor ing","glo be","cn n","krue ger","b uc","e as","g or","s ite","to mato","at tract","ir es","lear ning","deb ate","d ou","e yel","h ul","i le","m un","p as","r ush","t ea","en e","or ches","co vers","dis tance","sal ad","activ ities","eu rope","volks wag","m c","z om","on ion","ap ple","tr ans","che cking","cat ching","match es","jo hn","discuss ed","sty les","att acking","em p","construc tion","document ary","d unk","g ree","p age","r and","t iny","man s","car d","coo l","food s","star ting","ob jects","na e","sor t","k ne","m ass","p ri","s ke","y o","ar en","en ch","en ga","es cap","ay lor","ut ion","mon itor","cl ou","cre ature","but ton","enjo y","introduc tion","speak er","lat est","orches tra","l ines","n s","t es","dr y","ap art","ap ron","pe ct","sl icing","ger man","sof a","tig ers","truc ks","chines e","b un","c li","m all","r ick","s ad","t aylor","u str","w ash","ou red","at ta","car t","bo m","iv al","am at","ul a","bowl s","mar ri","bot tom","att acks","enter ing","eye brow","polit ic","cir cle","n as","s uc","is land","st uck","lip stick","ag ing","pan s","tu be","figh ts","describ ed","plan t","snow y","ca use","exerc ises","prepar ation","nat ural","sequ ence","emp ty","w ine","z en","in ten","is m","de ep","mix er","chef s","answ ering","a quar","g al","g ro","k icks","l id","w are","re w","re gard","le mon","le vel","ga mer","ut e","fr y","cap tain","attract ive","i re","j ack","k i","s an","t ack","u f","le ct","ac ho","for th","gr av","au di","cr aw","par ents","kis ses","cover ing","ali en","prin cess","jim my","broad cast","hul k","c ros","f it","i ble","is ter","pl at","il ity","mo der","ap ped","ri o","av ig","talk ed","duc k","cre atures","pol ish","fir ing","super man","push ing","pas sing","b on","d at","d ad","f ound","p ump","p izz","r ab","en v","tr ump","ough t","pre ten","cur r","ow l","kil ling","aquar ium","regard ing","c ave","g est","n ic","s am","t at","w ant","an al","is su","wh is","ad just","bl ind","sc ared","tr i","sit u","ul t","fe e","group s","con s","inter net","che ers","cat ches","mi cha","box es","pat ient","dia gram","az y","pir ate","adul t","newsc aster","20 1","env iron","micha el","e ts","f le","n on","n inj","z ard","sp ray","se ts","se cre","li br","dis plays","fro zen","te e","she et","jo b","swi ft","work ers","cor ner","fan cy","proble m","benef its","nas a","pizz a","libr ary","b ies","s ive","v est","y or","in ju","en er","ho llywood","re moving","im port","sh out","fr ench","explain ed","table t","cl ay","cy cle","ser ious","pur se","iz ed","instru ment","rand om","issu es","c of","g host","h a","m ay","n ational","r ail","in ing","ho tel","st a","st one","ro le","car rot","ga z","two r","el der","sh ar","sh aring","ta ste","inter esting","no se","pet ting","mix ed","je t","feat ure","sy n","electr ic","dro ps","glo ves","beard ed","dat a","inju red","import ant","b um","d id","re act","ie f","sp inning","tr ick","his tor","ent ers","go d","fl our","high light","na ment","tre at","tw ink","ham mer","clim bs","partic ip","dun ks","dig ital","instruction al","in o","an a","pl o","at ive","im pro","po ss","fro g","we ird","cr u","wrest le","vo ices","med ical","fac ial","beg inning","proble ms","announ cer","aren a","tat too","f air","j ar","p il","s outh","u gg","th rown","or der","li ft","de c","ul ts","cr ashes","cr azy","pic ks","mi ke","op in","repor ts","spec s","partic ular","sear ching","las er","relation ships","volkswag en","ske let","cli ff","secre t","cof fee","d ers","h um","r ad","u red","ch all","ro cket","ic ket","iv ely","gr ill","com put","com bat","cer e","soc ial","cho col","la unch","blo cks","acc ent","swing ing","vic tory","mem bers","landsc ape","moder n","c il","d am","d ash","k now","k icking","s igning","w ould","the ft","id s","or ous","ke e","am s","am ong","tr acks","we b","te as","um es","cr icket","ph ys","talk show","spe ct","mic key","fish es","ru bi","teen s","introduc es","hi king","vill age","bre ll","loc ations","quick ly","gro cer","ninj a","k ru","m ers","o se","s ket","t ap","in front","es h","to s","le ather","are t","lo pe","sp ir","tr ay","gu e","com mun","um brell","he art","form ing","clo sed","ti ed","key board","chan ging","sol ving","under water","grass y","past e","tour nament","stuff ed","direc tor","clou ds","eyebrow s","inten se","twor k","twink le","c ig","g ers","g as","h il","i phone","k ick","o me","p in","w ish","y ear","in cre","the se","ou l","at ely","st aring","le on","ad ow","fe et","spe ars","rel ated","wheel s","fut ure","safe ty","curr ent","yor k","d ic","d ess","f avor","u ts","en em","be cause","interview er","let ters","head s","augh t","host ing","flag s","cost umes","comput ers","chocol ate","favor ite","enem ies","d les","n ur","p ad","u es","the ater","al ing","re acting","st un","ro ts","bo l","li zard","sh ape","str a","plane t","near by","ang les","sim ul","president ial","sign s","depic ts","own er","lam bor","vill ain","stat ue","touch down","scoo ter","1 9","d ie","f a","k ill","l unch","n arrow","p c","p oured","r an","wo re","ed ge","dr ain","dr amat","ma gaz","fr esh","cr it","back flip","jo kes","fl u","fun ction","hat s","kno cks","scar f","sand wi","bor n","chop ping","sco re","tun nel","attemp ting","tar get","c red","o s","s i","ar do","re ve","me as","car ib","some body","do l","un ited","lip s","fe cts","bas ed","descri ption","lit ter","children s","motor bike","tex ting","elec tion","speed s","less on","sound s","cow boy","bath room","tow er","zo om","kru ger","carib bean","an y","ar ts","at ten","re le","re li","video game","rac es","rac ket","pat rick","sle ev","smo ke","uni forms","push es","bel t","roman tic","writ ten","suc cess","environ ment","lambor gh","magaz ine","c ro","c ul","c aught","e acho","f light","l u","m it","in c","be er","con ne","run ners","pr awn","screen s","scen ery","pic king","br ing","descri be","sl ices","mic row","chan ges","mach in","sil ly","blow ing","depic ting","surf board","viol ent","kitten s","entertain ment","dest ro","buc ket","grav y","leon ardo","eacho ther","c iv","f est","ro d","or t","wi fe","lo st","bo llywood","mo ments","tr ip","per fect","fr ame","pro test","sm iles","crowd ed","ser ved","draw s","if t","tur ning","perfor med","motion al","showcas ed","ele v","install ing","assem bling","techni que","g ang","j es","l ions","n avig","s ail","v irt","er o","on ly","st ate","ad o","ta sting","form al","pro te","compet it","flow ing","res ults","wing s","cand id","pack age","chr is","gold en","oper ating","mel on","mag ic","explan ation","count down","gentle man","skelet on","cig aret","cred its","reli g","d iving","m ud","n ie","r ic","s ides","t ies","in er","es ts","to ward","re vol","or gan","men u","sp in","ur y","pr ison","cus to","top us","plan es","guitar s","feat ured","head phones","hel ping","rock y","iz e","chas ed","oc topus","newsc ast","aud ition","zom bies","elder ly","grocer y","dol ph","d eath","n am","ar i","me th","ac y","gr abs","li me","fo cus","fe el","cat walk","sk irt","sk unk","op ard","ligh ting","ck ed","ingre di","mix ture","sur pr","eng th","boat s","ca me","ca fe","sn acks","wa it","struc ture","need ed","carri age","unt il","fat ality","lamborgh ini","d ump","f ab","f loo","f ell","j or","s aw","to ps","re g","le opard","ac les","car rots","us s","sp ins","de v","av ed","fe males","music ian","br and","tu red","craf ts","op tions","sto ck","buil t","ser vice","cre ate","sol ve","ru bik","ev en","din ing","brea ks","break fast","zo o","explor ation","fru it","boun cing","rele as","virt ual","d na","e led","j ers","p add","s us","th re","th ough","is is","re qu","ke eping","se es","el se","sh ut","str ate","br an","su ch","cou ld","read er","bot tles","ves sel","rap s","self ies","hill s","fing ers","anchor s","spec ific","photograph ed","indoor s","attemp ts","stret ching","univers ity","proper ly","impro ve","pil low","dess ert","a ches","r at","t ly","w rec","al co","ho op","le a","ro ber","ad vent","ga ming","ter n","ex press","qu es","perform ers","back pack","pu zz","fi ed","buil d","fish ing","can cer","hu gs","cont in","pup pet","bag s","stir red","em plo","hap p","brush es","chop ped","every one","bub bles","anal y","ener gy","dramat ic","microw ave","machin ery","jers ey","alco ho","c ree","t ling","w ants","wo lf","re move","ro bo","po le","up s","clip ping","au dio","mon y","cr ashing","road s","pres sing","fl ashing","micro phones","pen cil","sub st","exerc ising","athlet ic","lif ts","kil led","repair ing","provid ing","mup pet","stun ts","f ant","h us","n ick","u gs","v ac","pl aid","wo l","so ap","co medic","ad ing","bo il","se cond","bl y","ne twork","go l","go o","ul ars","str ing","rec ent","recor ded","class ic","spo t","pain ted","ba thing","care fully","ef fects","follow ing","vent ion","bloo d","should er","wit ch","stor m","weap ons","marri ed","plat form","robo ts","e con","l ast","o ly","r aw","th ick","al o","al one","lo b","lo ves","sing le","ks on","ea k","sh adow","whi p","cr ack","sl iced","bro ken","cre w","ste el","board s","ber g","cho ps","sub ject","add ic","sle ep","contain ing","spec tator","cir cles","lin ed","sha kes","education al","sear ch","rub bing","vic tori","happen ing","decor ating","punch ing","collec tion","eyel iner","cros sing","cigaret te","b age","c tions","g ta","j our","k a","m r","m ad","t rol","w ide","in fo","in ner","is sor","en tal","wo k","for ward","ap rio","ri es","tor s","discus ing","pic al","ill ustr","ist ic","ser ves","appl es","ev il","sun g","cor n","res pon","sy m","anc ient","chas es","far m","doctor s","lead ing","lead ers","material s","camp a","shap es","yo ga","particip ating","hum orous","rubi x","dic aprio","elev ator","d d","h iding","i red","s ay","t ell","al es","re moves","sp ring","bl an","li kes","de al","mon sters","cr y","no ises","gg er","bat tling","photo shop","cook ies","fast ly","celebr ate","celebr ates","wall s","but t","pen sive","ca kes","cup s","ef fect","bin oc","tit les","finish ing","comple x","bub ble","explor ing","mechan ic","rab bit","shout ing","fab ric","campa ign","s en","s ink","s ave","t t","y ells","is ion","the me","ch amp","or s","co ld","be ating","person al","mo t","se par","sc rolling","sc issor","gu ard","com ic","view er","ph y","low ing","water melon","bu g","bu gs","ud d","sun set","cur ly","sal es","ani a","auto mobile","cell phone","brit ney","activ ity","pig s","thin king","bun ny","treat ment","competit ive","subst ance","c ular","j am","j ones","r ally","s um","s aving","v it","w el","th ird","er ed","en o","it ions","ad i","be i","be ans","bo iled","ter min","am oun","po st","po ster","ex ter","he at","he ated","au str","str ugg","cr ush","br ide","qu ality","su v","ous es","ill a","ru bs","ition al","bar ack","prof ess","bur gers","feed s","topic s","mess age","carri es","ref ere","award s","techni ques","compl ain","posit ion","bom b","uf c","situ ation","hil ary","sandwi ch","puzz le","binoc ulars","a im","b its","c i","d ue","e k","n al","s que","an ing","al bum","en cour","pl ates","lo tion","se lec","bl az","up set","ex pensive","dan ger","av o","sm i","che mic","cri es","door s","et c","hu g","work er","ob st","bir th","stud y","ach u","just in","brush ing","pass es","num bers","bath tub","lam b","tit le","viol in","dum my","fur n","ene my","incre di","austr al","refere e","1 0","d den","n ba","p ipe","p acking","s me","u ally","x box","re an","re play","ac le","ac cess","wi re","men tal","ad vice","ter ri","dr awn","bl ouse","im press","sh elf","young er","ve lo","inter act","pro gress","no ise","br ad","star ring","jo ke","appl ic","vers ion","win ner","pul l","does n","res ort","mor ning","chas e","pass ion","swing s","loc ation","won der","season ing","mem ber","entertain ing","mup pets","weap on","enga ged","escap e","politic ian","san ta","preten ding","histor ical","rad io","thre at","spectator s","d j","g litter","k ite","l ac","t ires","w we","ro se","or a","woman s","co s","men s","ad v","sp at","ke ep","se ll","tr ou","po lo","ex tre","con ce","cus tom","su dden","sm ile","cri me","mat ter","rid er","coun tries","indi a","if ting","jac kson","fac ing","res ear","graph s","rel ax","sim ple","flip ping","tou ches","window s","pass eng","human s","lead er","ban e","fig ur","bul l","bre ast","spl it","gener ated","conduc ting","cab ine","shap ed","chat ting","eas y","craw ling","sket ch","fest ival","custo mer","rober t","emplo ye","trol ley","sque e","a ero","c el","d ate","g i","h ou","i let","k im","l ie","m pic","s in","w id","al ph","re el","ch in","id ious","car ds","wh ales","be ars","dr unk","am bul","go wn","de ta","con fron","down load","shirt less","room s","vis ual","ip ping","jo y","cre ated","swi ms","hel ps","coun ting","art ic","cur ry","sil ent","engine ering","care er","bur ning","design s","gather ing","blow s","scream s","pa pers","stor age","explan ing","ko rean","gor don","wol ves","econ om","oly mpic","champ ion","profess or","sme ll","ambul ance","2 00","l ength","m ill","r h","u stri","ch est","ch ina","st ic","ro bin","ac es","ed ward","il ly","se wing","tr ap","sh ania","ma ster","air port","fe ud","con so","str ong","perform er","hand le","figh ter","demonstr ated","ind ustri","je ts","cu b","recor d","comment ates","fir es","flow s","tur tle","ins idious","tw ain","sim ps","sof t","exc iting","pit cher","ot ic","rece iving","hur t","lear n","spr ink","attack ed","europe an","sta che","opin ion","commun ic","umbrell a","strate gy","alcoho l","spat ula","b ac","l ish","m ac","n ights","w inter","y on","is s","al k","to ld","to ilet","pl y","id ents","or ig","eo ver","ed s","show er","ge or","wh ale","ad dressing","dr ugs","se ats","am ing","ea ster","po sed","we ights","de velo","ta h","form ula","par is","diff ic","pan t","aw s","small er","ip es","sto ps","bro th","sur ger","mar t","mar ching","appl au","squ ir","ber ry","cur ity","bur ger","que en","contain s","nood le","mu st","ging er","surround ing","answ er","medic ine","rush ing","atta ched","politic ians","audi tori","tee th","nur se","shut tle","bran ch","incredi ble","resear ch","surger y","b ake","c en","l on","p red","p end","w s","z i","or ies","ab bing","as ked","be ll","be ef","lo ween","ie ld","ter rain","bl in","tr ad","im por","ur a","up on","ma x","we t","go ver","av ail","fr idge","con vention","cr ab","back wards","pu d","aw k","gl ue","demonstr ate","vo ic","mar k","mar in","fall on","ste ve","motorcy cl","work out","bal lo","bal let","hero es","afr ica","spr aying","provid es","kin ds","chee tah","dou bles","prawn s","bring ing","ingredi ent","padd le","victori a","smi th","furn it","geor ge","auditori um","impor tance","c ent","j ail","m ash","n est","n ames","r uss","w ires","an te","er al","er ie","al most","al pac","and a","re pe","me mor","ch alk","le ave","ro ast","as k","ge on","il ities","be low","sp a","se curity","ent ial","ex ten","ex tra","scen ic","ous ly","mer ma","arr y","sur fer","head ed","ted dy","cu it","wood ed","rac ers","sup port","host s","under wear","land s","rap per","cast le","em br","desk top","mur der","mis s","beg in","hal loween","swe et","lab ora","offic ers","engl and","pump kin","stra ight","civ ic","candid ate","improve ment","happ ily","voic eover","a to","b led","f ail","g room","j r","l ater","n t","v ines","man ner","en ge","to oth","to dd","re ar","ac ura","wi g","co p","co t","co ck","lo cal","for ce","se y","di gging","ur istic","ne igh","sh ark","sh iny","ve g","str aw","pro testing","br ick","par ade","lar ger","male fic","duc ks","star es","led ge","fl ame","race track","mic ros","fri es","hel me","beautiful ly","pre forming","produc tion","tech n","instruc tor","cal i","aga in","dow ney","la wn","design ed","dirt y","electron ics","stream ing","explo sion","tow el","health y","fut uristic","commentator s","univers e","appro aches","gest ures","blind folded","chall enge","cere mony","si x","jes us","prote ct","relig ious","hus band","scissor s","exter ior","blaz er","sudden ly","labora tory","malefic ent","j ames","k ar","n g","n ap","o x","p ap","z er","an o","an ti","ch ips","le af","ac compan","il ling","ad s","bo dies","for ni","do d","dr ib","gr at","ex otic","est ed","form er","pro motional","ol ive","br as","wr ap","back yard","ten ing","sk ate","fi le","ti al","who le","arr ang","tre k","sa id","class ical","cur ved","fac ts","tur tles","you th","experi ences","fin ds","sle e","stri p","cand le","swe at","hur dles","pi k","dinosaur s","val ley","relation ship","nor th","individual s","collec ting","pect ive","dolph in","meth od","gol fer","conce pt","passeng er","furnit ure","neigh bor","forni a","a kes","b ay","b acks","f rea","k re","r ate","s ent","in ed","is le","ar ti","play ground","wi i","as e","as es","co ast","be ast","lo ck","sc ram","sc rew","ap o","sh ield","gu lar","com for","pe eling","ling erie","run ner","pr a","no te","off ers","hand ling","rid ers","bu y","sk ill","ind ustr","star ted","grap her","games how","train s","appe aring","sub titles","la id","far mer","ban ana","pit t","chur ros","answ ers","pal m","dun king","ref lec","bloo pers","phys ical","mud dy","lob ster","passion ately","extre me","squir rel","cali fornia","grat ul","pik achu","kre u","industr y","1 1","e vid","e ars","f el","g n","h ouses","i er","n fl","r ough","s ize","u to","w an","z ed","th ink","man uf","re mo","ch ip","le ts","le aving","out s","ad mir","sp ark","sh aving","ent ion","ri han","de er","mus h","women s","con gratul","ve y","rep u","ll ama","che cks","bow ling","clo sing","fil ling","del iver","gg ed","jo king","sto mach","ros se","can o","program me","narr ation","cur tain","cor rec","rea ches","pup pets","lan e","cast er","iz es","sy ri","introduc ed","son ic","invol ved","offic ial","direc tions","tit an","du ce","pi le","rub ber","quar ter","call ing","fru its","mechan ical","punch es","promo ting","tomato es","ware house","adjust ing","serious ly","cul ture","addic tion","amoun t","lac rosse","orig in","diffic ult","manuf act","a use","a erial","e um","g ate","h ab","m ut","n ine","p aw","t am","t ying","w ent","th us","is to","is ting","the med","ho o","are as","ed iting","co ins","lo ki","gr a","di le","sh ades","ce iling","po ts","de ck","pe ace","air planes","ul l","mus eum","new sp","sho e","loo se","pan ning","tu g","rec tan","sk is","plan s","vo cal","ligh ted","fl ashes","fun ctions","animation s","cho ir","instruc ting","ator s","war ri","fin al","iz ing","fer r","mor gan","uni que","oc cur","chop sticks","depic ted","scient ific","du b","tran sm","tun e","tro phy","ram sey","fu el","dou ble","marri age","gal ax","advent ure","jour nal","butt ons","applic ation","alph ab","lon don","1 00","a ing","c ting","d ut","e ver","h oney","k at","k ers","l li","l av","l ush","r hy","s ni","t ent","w w","in is","in ation","al a","al low","me x","me ter","it i","ro be","ic ul","co dile","il ar","for k","dr ying","dr ama","mo jo","tr u","di p","sh are","ut es","view ing","tor n","um ber","he ar","sm ashing","ten ts","figh ters","mat es","mov ed","bu ff","ct ed","sur v","mar tial","jud ged","cap tured","mach ines","bet ter","day s","pon ies","goal s","sim ilar","anc ing","blo om","pack aging","mis sion","mu stache","lead s","lin col","ski er","argu e","batter y","phil ip","grow ing","ye ars","kee ps","cro codile","lu x","udd ling","conso le","iss ue","avail able","ato ms","helme ts","techn ical","c d","f oul","j ol","k night","r ange","s ick","s ions","v ation","w ashes","an k","an no","on a","al ley","pl ot","at tire","me an","st unt","ac ing","with in","be comes","fo am","po ps","com par","wat ers","air craft","um in","he aring","pr int","differ ence","bu ying","she ets","color ing","crow ds","ell a","jo gging","jo gger","face book","televis ed","jac kets","min ion","war m","drawing s","cal m","fin ding","showcas e","rot ating","sand y","point ed","sco tt","need s","setting s","finish ed","tran sl","tro pical","cn bc","eleph ants","superhero es","terror ist","zom bie","fle x","fair y","cere al","tap ing","feel ings","wrec king","blan ket","termin ator","industri al","simps ons","ante lope","evid ence","rihan na","newsp aper","b ri","b ars","c rown","f ed","h our","h ump","m ind","n if","n bc","p ines","p isto","r ivers","s che","s oul","t ape","w and","in fant","th um","is her","is sion","ar es","it un","st eak","ro me","ro mance","ab c","for d","dr ivers","dr ug","girl friend","ur ban","sh ine","ball er","ex pressing","boy friend","ta sty","mat ic","vis ion","pres ents","gg ie","sto ol","fl avor","tele phone","cre ation","ste w","fri gh","appl ied","walk through","fun eral","swim mers","advert ised","ner v","pul led","min ister","min nie","sty ling","exper t","my ster","rol led","experi ments","att ention","rel ay","pract ices","cloth s","sal e","travel s","lis ts","meal s","comp ared","design er","gymn astic","turn ed","clim b","cir cuit","lic king","too k","process or","rece ives","finish es","terror ism","nor ton","appro ach","drop ping","cond ition","lect uring","ha un","shar p","poss ible","opin ions","chall eng","meas uring","requ ired","vac ation","cos met","figur ines","deta iled","gover n","awk ward","titan ic","quarter back","itun es","a head","k ins","k ills","l ace","l aw","p ill","s af","v il","in se","er ness","on d","on stage","es ome","ch i","wi lli","so lo","as ium","car pen","us age","se ven","am as","am ate","di f","im p","ea st","po site","ex cer","ut en","de f","mus cle","new born","ve get","chil i","br ings","thr u","aw esome","ps y","bu d","op posite","ty ping","star ch","pres enter","appl ause","fam il","cu bes","can yon","mes sing","ger many","sup por","celebr ation","instruc ts","not es","sub way","coat s","fin ally","hero in","ba ked","lis ting","la kes","stri ke","rain ing","bik er","pack ed","follow s","ved io","tem per","tour ist","stair case","direc tion","oper a","wild erness","hur dle","list ed","oppon ents","happen ed","decor ated","load ing","boun ces","pri me","tack led","tri but","spect acles","surpr ised","crack ers","wonder ful","relax ing","trad itional","todd ler","amate ur","8 0","a ching","c in","c uc","c uddling","e mer","h indi","l ives","m ice","n u","r il","r up","s w","s na","v in","in home","in vest","en thus","to day","re o","re actions","ir ing","ab ility","so da","ad van","do m","dr ifting","gh et","el ess","bl ast","bl ican","sc ale","her bs","ex tract","ri b","we bc","ul es","fe eling","con ver","inter national","pro s","pro ced","bas kets","qu ite","col on","mat t","gl adi","ious ly","clo ses","soc iety","vo te","vis ible","ste ering","narr ated","ade le","fast er","cont act","cho ice","cho reo","pain ts","enjo ys","don key","don uts","pat ch","electr ical","gymn asium","smo oth","listen s","ra ising","rece ipe","butter fly","spr in","attem pt","happen s","bel ie","drop ped","hun ger","chee k","tack le","whis key","histor ic","dash board","inc ident","jor dan","goo gle","complain ing","employe e","aero plane","pred ic","arti fic","kreu ger","repu blican","transm ission","galax y","sni ff","bloom berg","lincol n","nerv ous","haun ted","govern ment","willi ams","famil ies","enthus i","webc am","c ling","c able","e pic","g lowing","j ay","p un","p acks","s wit","s lope","t in","v int","v log","y ed","z one","is lam","ar ian","re action","ch ica","it self","st on","le ap","so a","co pe","car ry","some ones","pers pective","sp aces","mo tions","gr in","sc ul","tr on","di ed","di am","sh el","sh red","ce ment","up beat","ma jor","com man","com ical","com bing","com bin","ide as","de tail","pe cts","char t","coo ler","he ating","con gress","con tents","inter acts","str ain","chil li","br ief","ll amas","su ite","pan or","cl aps","mat ters","ist ics","photo grapher","sl iding","cook ery","ste am","walk ed","sel ling","open ed","pre y","ring s","cont ent","ange lin","appe ared","rea ching","cast ing","ear ly","whe eled","mis sing","acc idents","clim ate","press ure","partic i","viol ence","comple te","mini ature","syn c","umbrell as","newscast ers","danger ous","obst acle","kim mel","rh ino","repe ated","spa ghet","remo te","syri a","manufact uring","alphab et","philip pines","scott ish","hump ty","vint age","chica go","scul p","angelin a","spaghet ti","b one","b ush","c ine","c ue","c ages","d ail","f isher","g eo","g ift","h aw","h unt","l ers","l ink","m ou","n ano","o o","p n","p aved","r ess","r ises","s ar","s ession","v ir","an ger","on y","al ities","ho les","st al","st ro","ro o","or y","co in","co aster","some where","ga ve","be am","be ats","us a","sp reading","do h","ter ia","dr one","mo ment","gr abbing","tr actor","tr unk","im ag","ne at","po ll","po sters","ent ly","we ek","dan t","sit com","coo ling","con cre","ff le","bas il","br u","br ake","wr apping","ten ed","cl ap","od d","mi gr","bu zz","sk ull","ant ly","fl ames","je wish","fall en","set up","see m","tan ks","train er","sky line","iz ation","angr ily","whe ther","speed ing","bik inis","comp aring","compe ti","mis ses","kno cked","hal o","sed an","push ed","tour ists","hang s","direc tly","oper ation","inclu des","du st","coll ared","tran sport","mess ages","hood ie","explo ding","than ks","excited ly","call s","dum pl","stret ches","han ks","hun ting","dry er","reve aling","rod ent","releas ed","mot ive","trou ble","champion ship","alpac as","challeng ing","proced ure","choreo graph","artific ial","dail y","concre te","b are","c co","c ash","i ga","n ut","p ay","p anda","s mel","v od","z illa","in te","es pn","st an","le aning","so m","as y","us ual","ie l","bo ss","un boxing","un ison","ap es","tr ian","up per","av ril","per fo","fe ar","con an","rep res","pro je","pr iv","hair cut","fil es","guitar ist","flo ats","fl akes","bro ther","vol le","cap t","home made","ange l","rea ch","por tion","land ing","sty lish","fac tor","rap id","intro duce","ca uses","sex ual","stri pes","fred die","scor p","sed uc","cow s","ot es","arrow s","hi ke","argu ment","mee ts","surf s","mess y","explo des","inj ury","slam s","fic tion","nat ive","gener al","wit ness","conduc ted","har vey","bright ly","smart phone","pick up","conf used","nic ely","god zilla","tattoo s","destro ying","revol ution","dump ty","analy st","chemic al","austral ian","custom ers","wid ow","artic le","russ ian","neighbor hood","ferr ari","lav a","lux ury","pisto l","sna kes","a j","b il","d ying","d ream","d ivers","e motion","e leg","e motional","j on","j unk","k n","p rec","r ise","s ister","w ound","z es","in no","an cial","re vers","re illy","le ans","ac compl","ic ans","as pects","lo v","mo od","gr ip","un usual","sc rolls","tr im","tr ash","ne ver","sh ift","ain s","av at","fe els","ta ges","expl aing","cr im","pr ession","wor m","des igning","br ace","wr aps","su mo","back up","pan ic","sm ash","sm ashes","cl ick","cri b","col um","ti p","star fish","vis iting","ell ite","jo ckey","bed s","buil ds","race car","field s","review ed","mar vel","head set","ru bio","art ists","jud ging","na ked","sa ute","home less","cho ices","channel s","ca using","fin ancial","fer ret","sn ap","wa its","bik ers","information al","move ments","mu g","lif ted","afr aid","ali bab","coll age","every thing","carri ed","spl ashing","exam ining","cab bage","loud ly","free man","grow th","ug ly","covers ation","craw ls","electric ity","dam on","bol t","zoom s","spin ach","cree py","bei ge","aim ing","confron ting","econom y","develo p","merma id","accompan ied","sweat shirt","jol ie","dif fr","vod ka","accompl ish","6 0","b m","b ound","c hor","c ade","c bs","d ashing","e gy","f al","f use","i bly","j en","n eath","p ea","r is","r it","r ican","r ender","s lo","t ight","v io","v ia","ar med","the at","al ready","en ced","pl ies","pl uto","me ga","ch ief","id ers","id ence","le e","ab ilities","ad a","ga ga","ter ed","mo d","mo ld","se th","se mi","iv ed","un g","bl ending","ea gle","dis eas","po pe","po inter","po cket","gu m","gu ests","ma ggie","go at","go of","per ry","mus cular","con front","mon o","ff y","no wn","ph arm","af t","wr ong","back stage","camer as","hand les","bu sters","green s","cle ans","int im","jo in","fl ute","cre ates","ste ep","brown s","swim suit","pre gn","recor der","cap ture","fashion able","if ts","under neath","cur sive","por sche","min aj","spo of","res ting","pract ising","sn ack","sn ail","pat rol","lap se","ry ding","unk nown","auto motive","bur st","contain ers","mu ff","kno ck","ban k","hard wood","sco red","earth qu","announ ces","dun geon","jun ior","scoo ping","teenag er","fru str","ko rea","writ es","sat ellite","ze bra","wash ed","situ ations","shar es","crit ic","sleev ed","protest ers","though ts","due t","cabine ts","chin chil","bac on","chalk board","kar ate","journal ist","diam ond","repeated ly","priv ate","volle ying","egy pt","vio let","9 0","a gr","b ang","d ent","d ives","e ing","e cut","f on","g ad","g mc","i to","i ther","l eno","n es","n ip","o k","t we","th ose","ar mor","the tic","en ing","at tr","of t","re co","re ts","st ats","ab ra","so il","co ke","car a","il led","ther mo","sp i","sp ar","sp it","do ts","se ction","sc roll","ur ies","dis aster","ma the","ex pect","ri ed","pe ter","view ed","ul tron","mus lim","fe t","au st","str y","cr an","pr ice","ass ist","amer icans","qu alities","su re","back flips","pu b","ten der","che mis","its y","watch ed","fi f","ti le","del ivers","photo es","high er","high lighted","cook er","bro ke","mar y","mar co","pot ential","board ing","sa uc","convers ing","sun screen","bar king","boo ts","cover age","spo ons","letter ing","look ed","tw irl","anc ed","pow ers","wa kes","auto graphs","mis sed","lad der","bor der","spec ies","cir cular","pit ch","drum mer","hur rican","pa stry","scient ists","butter flies","pep pers","pi x","repair s","bloo per","finger nails","lat in","stret ch","crash ed","pac ket","posit ive","gree ce","kne es","mass ive","enga ging","anal ys","poss ibly","teas er","conne cted","civ il","even ing","cree k","separ ate","jets ons","cen tr","protect ive","hab it","torn ado","surv ival","baller ina","carpen ter","temper ature","cuc umber","colon ial","enthusi astic","spaces hip","partici pants","dumpl ings","iga tor","diffr ent","chemis try","1 2","a isle","b is","b arr","c c","d rew","f re","f ai","h ash","l ug","l avig","m ong","n uts","o vers","p p","r ats","s lip","s ang","s words","s ized","z on","in spir","th ers","on ce","and er","ho g","me dium","ch ap","st it","ro aming","or aga","ac ce","ac tu","ic o","out er","sp read","mo ck","se lect","se eds","am ic","fo il","tr apped","dis co","sh ake","po d","po o","po or","anim ate","tor ch","ta x","he ard","movie clips","bas ic","br id","af fect","wr ist","qu otes","su gg","off er","cl ut","hor ri","ish ed","hand ing","over view","over head","hair style","soc ks","star k","flo at","gg ies","act ed","sto ries","motor bikes","door way","sl ice","ste ph","vol cano","advert is","work ed","fire truck","pre form","part ment","pool s","tex ts","bal ancing","fer rets","pat io","ach ers","wa x","blo g","pass ed","ow ls","chr on","ori ental","ra ises","lyr ic","tim ber","coll ap","tran sit","announ cing","stat ues","than king","ib ility","assem bly","gent ly","hy dr","landsc apes","kne eling","tes ts","island s","cros ses","201 5","rail way","fair ies","tos sing","pad s","crit i","zoom ing","atten ding","sleev eless","navig ating","surpr ise","fant asy","guard s","sum mer","strugg les","bits y","selec tion","chemic als","birth day","access ories","easter n","blin king","motorcycl ist","ballo ons","extreme ly","wan ting","buff alo","myster y","rib bon","alibab a","pregn ant","nip ple","abra ham","hurrican e","lavig ne","oraga mi","1 5","c gi","d red","f ine","g ay","g rown","h edge","j el","k u","k an","m ous","m add","n ar","n acho","o re","o val","o kee","r en","s aved","s witch","v a","w ack","y gen","in v","in flu","th rew","th ought","en cing","pl us","at mo","ho ri","re as","re fri","re ven","st ones","ro b","ac ade","tal e","ers hip","ab or","car ton","men ting","person nel","all igator","sp el","sp icy","dr ied","am use","tr ade","di alo","im migr","sh allow","ma her","sit ing","danc er","ta u","fr ames","ve ggies","inter est","sho ps","sho cked","differ ences","ag gress","kitchen there","col oured","hair s","der by","vo ting","vis it","gg les","jo bs","bat s","cook ie","ser v","bro cco","mar ch","plane ts","hel lo","ves ting","tech nic","gre co","boo th","cas es","cor por","war ming","graph y","sal on","pat tern","leg al","ton y","kno wn","far lane","tem ple","lin er","oper ate","pep pa","neck lace","coll ision","mag net","check ed","ax e","cher okee","bio technology","dest ination","gree ting","pri est","apart ment","fit ting","sta ff","rubi ks","drain ing","flu ffy","reve al","wait ress","floo d","dev ices","crush ing","cabine t","mart ian","micros cope","warri or","mex ico","uten sil","invest ig","gladi ator","islam ic","repres ent","lov ely","chinchil la","mathe mat","fif th","advertis ment","timber lake","madd en","wack y","atmo sp","hori zon","refri ger","amuse ment","brocco li","1 6","7 0","a k","b ite","c eo","c kets","e ither","g one","g ats","k ab","m ate","o te","p att","r ays","s our","s ight","t ough","t act","in ser","an ces","er ate","ar cade","to fu","and s","ho ver","re fer","re commen","ch ain","it es","st ain","id ea","ac ou","ic t","out line","wi ping","ed erate","co ps","car bon","be ets","lo ver","lo ving","lo gs","do ck","mo di","mo squ","se ating","gr az","sc an","ap par","ur f","com pon","ex cell","go ods","by e","ta st","he ight","con spir","str aps","cr is","cr isis","pr aying","screen shot","af fe","row s","ag ree","sm urf","cl ar","rec ap","rec ipes","through out","green ery","ty pical","fi red","fi fa","let ting","ind ex","ant ic","ms nbc","arr ested","chan ting","mar ine","mar ker","head ing","program m","rac er","light ly","ped es","spo ts","super market","works hop","still s","sub marine","mas ala","mas cara","cast ers","bal ance","pon d","hero ine","don ut","ump ire","stri ps","ben eath","drive way","cand les","wheel chair","cell s","far ting","bra id","bra kes","bra ids","gold fish","pa ul","install ation","stop ped","bul let","loc ated","wea ving","inj uries","should ers","las ers","gener ation","exam ines","thin ks","conf ederate","chee ks","volkswag on","john ny","card board","clou dy","201 4","jet ta","syn cing","cru z","dam age","sleev es","success ful","jes se","sail ing","dev il","lea gue","deal ership","encour aging","obst acles","impress ive","squee zing","confron ts","communic ate","pud ding","ballo on","ox ygen","dod ge","drib bling","arrang ing","official s","rectan gular","anno ying","frigh tened","inse cts","psy cho","tribut es","advan tages","neat ly","smel ling","stan ky","eleg ant","crim in","accomplish ments","agr icul","dialo gue","tau ght","gats by","a str","b ones","b ump","b acking","e ight","f 1","f ill","f les","f ps","h r","i fied","j aws","l ens","o y","o on","p ts","p us","s id","u ing","v w","v ig","w ast","w ise","in ste","en or","at ic","at ting","re v","re moved","ch im","ch icks","st all","st ages","ac o","ic ated","wi el","ed it","so lar","as ia","ga m","person ality","lo vers","sp ending","do t","mo b","mo de","se min","un ks","el abor","sc ree","tr um","vie t","up side","fro sting","com b","ex hi","ex pression","ess ed","ri p","ite ment","per i","he els","ling s","str ut","pro bab","cr ay","cr um","cr acking","pr am","ard s","low s","low er","pic ked","news room","br ie","water falls","wr apped","off ering","cl ad","tu ce","sk ipping","key s","gg y","act ive","mer ing","je an","chan ged","grap ple","fore head","moun ted","coun ts","program ming","advert ises","end ed","teach ers","squ ares","rac co","pre v","snow man","part ner","light ning","class es","ner d","gar n","pur pose","mas cot","cal cul","bal ding","elec tions","eye glasses","care y","fix es","ham sters","move ment","press es","far ts","exc itement","lam in","mel ting","spr ays","stop ping","stat istics","pi er","appear ance","zz y","ref lect","decor ations","tro o","actress es","provid ed","dragon ball","truc tion","main tain","hun dred","cond itions","step ping","control s","conf idence","aud itions","buc ks","mass age","enga ge","fit ness","pump kins","preten ds","adjust s","rail road","among st","tap ed","gang s","revol ver","ingredi ants","cafe teria","contin ues","boil s","respon se","sym bol","spring s","mot iv","strugg ling","sprink les","pud dle","motorcycl ists","memor ies","fail s","skate board","arrang ed","origin al","difficult ies","mut ant","kat y","ww f","strain er","vir us","choreograph ed","revers e","diseas e","analys is","mong o","steph en","atmosp here","refriger ator","acou stic","enor mous","1 8","5 0","a h","b ought","d al","d or","d ive","g ig","h d","h id","k art","k han","l en","n av","p ound","r us","s ley","s ending","t iles","u x","u er","in ary","an na","th ro","ar ch","ar ies","man d","al ways","en cy","en closed","at tributes","re vs","me adow","st ating","st able","id ay","or n","or ders","ac ne","ac cus","tal ents","ic le","ed ing","so y","show room","co de","men sion","ga e","ga ge","ther ap","be coming","lo ved","sp ong","dr ought","un ders","el vis","bl ush","tr ance","di mension","gu ide","his panic","ma ker","ri fle","go ss","ul um","mus cles","ta wa","con dom","inter rup","pro p","ff iti","cr abs","pr im","wor ried","br y","br ought","par ag","par ach","back drop","thr ill","ish es","hand some","craf ting","sports car","lar ry","let tuce","cy cl","fl or","fl avo","arr ange","feat s","mar ia","near ly","box er","box ers","hel ped","walk way","use ful","can not","fash ions","hit ler","draw ers","cho ose","bar n","cas ual","cur ling","cor respon","por ch","ins ides","res cue","engine ers","tex as","goal ie","pat ter","cup board","stick er","speak ers","wa king","spoon ing","rain bow","auto matic","ben ding","que t","showcas es","gen et","robot ic","clean ed","battle field","invol ves","ra ised","drag ging","sco t","fly s","wild life","pal e","pal ace","bre ath","helicop ters","brow sing","rub icks","power ful","val ve","scoo ps","bloo dy","tro op","beat les","assem bles","donal ds","conduc t","exam ine","benef it","gentle men","wind y","posit ions","gor ge","trans form","escap ing","preten d","gest uring","sam ple","shar ks","interesting ly","syn chron","particip ate","simul ation","sandwi ches","destro ys","candid ates","prison ers","dolph ins","zoo med","releas e","sus pend","express ions","vac u","sym ph","adv anced","breast s","olympic s","mac farlane","pend ulum","exten sions","trek king","slee ve","deliver ing","correc t","gra ffiti","compar ison","thum bs","cosmet ic","sniff ing","bru ce","competi tors","capt uring","rapid ly","avat ar","develop ment","bm w","semin ar","viet nam","peri od","lamin ate","mongo ose","flavo red","a ul","a qu","d it","e th","e vol","e motions","g les","g lim","h ide","m ight","n ation","p ipes","r ack","r ating","t ill","t ask","v ily","w es","x ed","y ell","an or","th ous","er ous","al ter","en ed","en acted","pl ain","ho lo","re tail","ch u","st re","st icking","id ol","le one","ro y","or din","ir an","ic on","ic ons","play fully","wi pes","ed ges","as soc","ad vis","ple as","be hav","be come","us er","lo ses","lo ss","ie val","bo ob","for med","sp er","sp ain","sp ice","sp arrow","do min","mo le","mo lec","mo ped","mo cking","gr an","gr ad","un it","un wrapping","sc r","sc u","li ber","fo li","tr ips","dis k","dis tr","ne g","sh ing","sh ade","ex ecut","ri ch","pe an","ta stic","he ars","au thor","inter face","inter ested","sho vel","pro ce","pr oud","wor th","ass ort","par anor","foot loose","wr esting","ag ent","back packs","pan cakes","ten ance","thr ones","tu bes","hor n","ish ing","mat ure","rid or","band s","sports man","sk ies","spe cts","put in","she ep","star bucks","cy cling","tele cast","ser ial","floor s","model ling","eng ines","vers us","motorcy le","sol ution","med ieval","trail ers","win ding","tel y","program s","fire place","pre historic","snow flakes","cap e","tan e","tan y","na zi","sup plies","ber ries","school s","bar ber","bar tender","eat en","cor ridor","egg plant","por tray","commer ical","pen s","mas ked","meat balls","sil en","sil hou","sim mering","sauce pan","blo wn","rain y","country side","mur ry","wheel er","test ed","az zi","less ons","photograph y","feed back","tour ism","eyes had","lin ux","num erous","glo bal","chur ro","fan tastic","hea vily","roof top","syste ms","surf ers","grand mother","batter ies","sem ite","painting s","vine gar","mag n","bit es","explo re","tow els","pig gy","comple ted","season ings","superhero s","terror ists","skin ned","flash light","sequ ences","roman cing","main tenance","block y","cross ed","eyel ashes","mc donalds","trans fer","trans former","yo semite","amat uer","rail ing","cru ise","phys ics","spect ac","stra igh","reve als","meas ure","atten d","sail or","audition ing","meth ods","dump ster","express es","jour ney","aim s","encour ages","austral ia","employe es","hou ston","applau ding","mash ed","nest ea","micros oft","pap ar","frea ks","scram bled","reflec ts","admir ing","spark ly","mush rooms","curtain s","dip ping","print ed","suppor ting","nano technology","proje ctor","theat re","mono lo","earthqu ake","lug gage","horri ble","hedge hog","tact ics","mosqu ito","agricul ture","inste ad","probab ly","brie fly","dimension al","gorge ous","vacu um","assoc i","assort ment","paranor mal","a er","a the","a or","a top","b illy","c ad","c ass","e clip","f oun","f ills","g ur","h arry","i ents","k not","k ha","l one","m ama","n ay","n uc","n om","n ig","p g","p aying","p ages","r av","r ural","s aves","t um","u fo","v om","w en","w est","z ip","th under","on ed","ar twork","al ex","en trance","to ast","re me","ch ess","ay a","id ental","le ash","le ep","ro les","ro cking","ac cor","ic ide","out field","out takes","so ld","as parag",
[...]
